/**
  ******************************************************************************
  * @file    mnist_data_params.c
  * @author  AST Embedded Analytics Research Platform
  * @date    Fri Apr 26 13:11:32 2024
  * @brief   AI Tool Automatic Code Generator for Embedded NN computing
  ******************************************************************************
  * Copyright (c) 2024 STMicroelectronics.
  * All rights reserved.
  *
  * This software is licensed under terms that can be found in the LICENSE file
  * in the root directory of this software component.
  * If no LICENSE file comes with this software, it is provided AS-IS.
  ******************************************************************************
  */

#include "mnist_data_params.h"
#include "user_main.h"

/**  Activations Section  ****************************************************/
ai_handle g_mnist_activations_table[1 + 2] = {
  AI_HANDLE_PTR(AI_MAGIC_MARKER),
  AI_HANDLE_PTR(NULL),
  AI_HANDLE_PTR(AI_MAGIC_MARKER),
};




/**  Weights Section  ********************************************************/
AI_ALIGNED(32) __AT_EXFLASH__
const ai_u64 s_mnist_weights_array_u64[6757] = {
  0xbeffe426bf00d114U, 0xbefb8c30befe2624U, 0xbef984ddbefaaa20U, 0xbef5701abef77d8aU,
  0xbef1f416bef3b218U, 0xbeee7812beef603eU, 0xbeeafc0ebeecba10U, 0xbee742f2bee94a45U,
  0xbee40406bee5c208U, 0xbee12cf9bee24604U, 0xbedd1e53bedf25a6U, 0xbed90fadbedb4dfcU,
  0xbed613f6bed7d1f8U, 0xbed2f9b4bed50107U, 0xbeceeb0fbed0f262U, 0xbecadc69becce3bcU,
  0xbec8d516bec9e1e9U, 0xbec4c670bec665e5U, 0xbec0b7cbbec2e9e1U, 0xbebdafdbbebeb077U,
  0xbebaa1d1bebbf1d9U, 0xbeb6932bbeb89a7eU, 0xbeb28485beb48bd8U, 0xbeb07d32beb17dcdU,
  0xbeac6e8bbeae75dfU, 0xbea85fe6beaa6739U, 0xbea54bbfbea65893U, 0xbea249edbea45140U,
  0xbe9e3b47bea0429aU, 0xbe9a2ca1be9c33f3U, 0xbe98254fbe9919b1U, 0xbe9416a9be961dfcU,
  0xbe900803be920f56U, 0xbe8ce7a3be8e00b0U, 0xbe89f209be8bf95dU, 0xbe85e362be87eab7U,
  0xbe81d4bfbe83dc11U, 0xbe7f9ad5be80b595U, 0xbe777d8bbe7b8c33U, 0xbe6f603fbe736ee2U,
  0xbe69070fbe6b519dU, 0xbe63344ebe6742f7U, 0xbe5b1700be5f25a2U, 0xbe52f9b9be57085eU,
  0xbe4d26efbe4eeb08U, 0xbe46cdc1be4adc6aU, 0xbe3eb07cbe42bf17U, 0xbe369330be3aa1d2U,
  0xbe328482be34c2d4U, 0xbe2a673ebe2e75d3U, 0xbe2249f2be26588fU, 0xbe1c5eb8be1e3b41U,
  0xbe161dffbe1a2cb0U, 0xbe0e00b0be120f4eU, 0xbe05e374be09f202U, 0xbe01d4afbe03fa9cU,
  0xbdf36efbbdfb8c16U, 0xbde3343ebdeb51acU, 0xbdd72d01bddb1700U, 0xbdcadc43bdd2f9cbU,
  0xbdbaa1f3bdc2bf05U, 0xbdaa6711bdb284afU, 0xbda249fcbda664caU, 0xbd920f4dbd9a2cbcU,
  0xbd81d4b3bd89f201U, 0xbd6b3925bd736ecdU, 0xbd52f99cbd633415U, 0xbd32845abd42bf93U,
  0xbd120f92bd2249e5U, 0xbd01d472bd09a8b6U, 0xbcc2bfa8bce33410U, 0xbc81d465bca24998U,
  0xbc20611bbc42bfb5U, 0xbb81d4dabc01d44cU, 0x3b81d4d900000000U, 0x3c42bfb63c01d44cU,
  0x3c81d4623c65e0a1U, 0x3cc2bfac3ca249b1U, 0x3d01d4693ce3340fU, 0x3d1b08973d120f9eU,
  0x3d3284533d2249b9U, 0x3d52f98b3d42bf95U, 0x3d736edd3d633412U, 0x3d81d4a03d7c9906U,
  0x3d920f5a3d89f201U, 0x3da249fd3d9a2caeU, 0x3db284a13daa6737U, 0x3dbaa1f53db60cc2U,
  0x3dcadc3d3dc2bf27U, 0x3ddb17003dd2f9cdU, 0x3de6d4fa3de33439U, 0x3df36efb3deb51bcU,
  0x3e01d4ab3dfb8c14U, 0x3e09f2033e05e373U, 0x3e0e00b63e0bce99U, 0x3e161dff3e120f4dU,
  0x3e1e3b413e1a2cb0U, 0x3e2432b43e2249f2U, 0x3e2a673e3e265893U, 0x3e3284833e2e75dbU,
  0x3e3aa1d63e369327U, 0x3e3eb07b3e3c96d0U, 0x3e46cdc23e42bf1dU, 0x3e4eeb0d3e4adc67U,
  0x3e54faec3e52f9b1U, 0x3e5b17003e57085dU, 0x3e63344f3e5f25a5U, 0x3e6b519a3e6742f1U,
  0x3e6f603e3e6d5f08U, 0x3e777d893e736ee2U, 0x3e7f9ad63e7b8c30U, 0x3e82e1923e81d4bfU,
  0x3e85e3643e83dc11U, 0x3e89f20a3e87eab7U, 0x3e8e00b03e8bf95dU, 0x3e9008033e8f139fU,
  0x3e9416a93e920f56U, 0x3e98254e3e961dfcU, 0x3e9b45ad3e9987abU, 0x3e9e3b473e9c33f4U,
  0x3ea249ed3ea0429aU, 0x3ea658933ea45140U, 0x3ea935bd3ea777bbU, 0x3eacb1c13eaa6739U,
  0x3eb07d323eae75dfU, 0x3eb3a9c93eb1ebc7U, 0x3eb725cd3eb48bd8U, 0x3ebaa1d13eb8e3cfU,
  0x9595959493939392U, 0x9493959393949594U, 0x9593939394949294U, 0x9393959395939495U,
  0x8992939495959394U, 0x8b959093938e9088U, 0x9594939394958e8cU, 0x8f8d949599949595U,
  0x8e73706c8079717bU, 0x9a9495a9afa19799U, 0x9d90939495969388U, 0x888d88a1a4a9a7a5U,
  0x99a7a3a0a18b888fU, 0x948e95a39a94a5a8U, 0xa9a4a3a5ad9c9393U, 0xa29996a5a7a7a1a2U,
  0x90999b8e9baaa2a3U, 0xa1a2959594aba5a5U, 0xafa39b8fa0a9a2a5U, 0x9c9ba5a99c96a1aaU,
  0x97bdaa95949e949dU, 0x96a5a98f848da196U, 0x9b96979e999e9995U, 0x9e928c9a9d949da1U,
  0x8689a59594b4b7a4U, 0x9392969c9296a18eU, 0x9e90969aa299939bU, 0x99a5c6a29999949bU,
  0x8f979d8270808295U, 0x8f8e939797999e9bU, 0x999d9c969a938d93U, 0x736b8f929eabc4adU,
  0xa39da0a59697937fU, 0x928e80787a788492U, 0x9ba8b8a792a0978eU, 0x9b908781846c8690U,
  0x7f82889aa29d9ca4U, 0x7381828e95999085U, 0x7f6c7f9293aba18bU, 0xa79c97a2948f7b74U,
  0x90a4a3a3a8b4b0b2U, 0x88a79670535c788bU, 0x8f8c746462688093U, 0xbfd2cfbfb3a99993U,
  0x6b727a858f9da5afU, 0x626c7a9a8b99805eU, 0xad9a929689726861U, 0x8996a1b2bacddcc6U,
  0x898c7f898d7d7f7fU, 0x725b4d6365708c99U, 0xa5bec1b9a4927e7eU, 0x90888b888b97a2abU,
  0x78a89e8e878193a2U, 0x7f6c6863534c4d71U, 0x9b9b9c9e94a1a397U, 0x8592a5b8a89d9999U,
  0x656d718692a8a586U, 0x887e736148485a64U, 0xb4a99c9da2a79a96U, 0xab96a193858797bdU,
  0x3b42637f889597a2U, 0xa7a7a3967e705d49U, 0x7f6d5fa0afa1a49eU, 0xa1b6b1b7c296a497U,
  0x7e7470646f6d7f93U, 0xa2a0a29ea89a9e92U, 0xc6977f97896f5e9cU, 0x939c9da4abc0c5b9U,
  0x9d9b8f8b817b818eU, 0x886c7094a9a1a3a0U, 0xa2b7b4b0a98da595U, 0x84898f939da2a3aaU,
  0x9caaa5a297948d88U, 0x92929699946a5d73U, 0x969ba09b9ca09ea2U, 0x958e898b8d929596U,
  0x9379615e7a979da2U, 0x9085849b969aa196U, 0x8d9397939d9c9793U, 0x6f8b8e9594929090U,
  0xb3b3929490866a5bU, 0xa19e94928c8e9aa3U, 0x8b95909c9799a09bU, 0x938977746678878bU,
  0xaaaba4a1a88f9392U, 0x8f868b8f949b9ea0U, 0x7a7e7f80787f899aU, 0xa1a4939592887773U,
  0x8fa2a5a0a5a3a8a4U, 0x7e818e9290909397U, 0x939394888487888bU, 0xaa9493b9a4949495U,
  0x8c9993949b9cb0a5U, 0xa18f8c8c828d938dU, 0x9494939395949295U, 0x7e787a81888f9394U,
  0x7d76668896827a88U, 0x9395939393908f7eU, 0x9395939494949494U, 0x9395a5a495929595U,
  0x9594939494949593U, 0x9495959395939493U, 0x9cb8a39985849694U, 0xa58d726a768f8f88U,
  0x96939393827f88abU, 0x92928d9093969493U, 0x7e888c878d8c939aU, 0x95acb9b89d7d7372U,
  0x88a3939294929495U, 0x77857d828c889086U, 0xa894807a7e7d727dU, 0x939da3b1b0ababa9U,
  0x99a09eb09bb09d95U, 0x8b948f908187828cU, 0x95a097a1aa948e8fU, 0x81a89394a29792a0U,
  0x8777878ba5ada48eU, 0x9b8e8582888f9695U, 0xa19aa2a59a8c8e99U, 0x96a7a19293949a93U,
  0x81859495948d898bU, 0x8c8b9a99999da192U, 0x9e93b1939a969486U, 0x959594888f908692U,
  0xa4a4a28f857f8d99U, 0x978f78767d8692a1U, 0x9a94869aaa9e8d8cU, 0x857885979b9da3a1U,
  0x6293a1a4a7aca090U, 0xa29aa9948c84764fU, 0x9399a5a9b1a789a3U, 0xadb0b6a7947a7486U,
  0x908072445b8fa5b8U, 0xa8a799ada795ad97U, 0xa58d736c7789969bU, 0x5497a8b9b2b6c0b9U,
  0xadb38e9b9772642cU, 0x798890999ca4a3adU, 0xb3b6bfb9bdb48f7eU, 0xa2864f3a5a95adc0U,
  0x969eaaafa2b0a59eU, 0xbebaa5938d858596U, 0x8296a1a99dadb7bbU, 0x93a3979c9d7a685dU,
  0x8c88849796a1a4b3U, 0x9ca4acb8bbb9a590U, 0x907268627996a09cU, 0x928ca3a79aa9a188U,
  0xb2b7b09e93898996U, 0x8194a1939795a5adU, 0x96aca28c8f766d65U, 0x998e899a93848593U,
  0x938f9ba3afb1a99eU, 0x859373638da19d9bU, 0x9c84818e8ca7a399U, 0xa4aba49994959aa4U,
  0x7487939c9da09b9bU, 0x8c9ba7947e877b71U, 0x928f949c906f7e8dU, 0x9ba0a19e9ca4a29aU,
  0x7b85696171808d8fU, 0x7f707a879aa4aca1U, 0x9e9a94888682888bU, 0x4e778e8e949ba3a7U,
  0xb2af9d9a95966931U, 0x72767b7e81858d9cU, 0x9c939aa497968176U, 0xa2857d424f69888fU,
  0x8e8f929ea0979994U, 0x969a857d6b747882U, 0x5f707b8b968f929cU, 0x9593949b97888861U,
  0x818c848e90959a90U, 0x8d8f8c9399958986U, 0x93808e786977778cU, 0x929d9e8b879d9e9bU,
  0x9c95938887888188U, 0x82797281928c8e92U, 0x82a9949396979684U, 0x867b7d8599949685U,
  0x85928e939e9a9688U, 0x929d89908e827b82U, 0x9dafc4c2a5a89494U, 0x8882858195a0908cU,
  0x8e8c909d97908990U, 0x93a496959485787aU, 0xa4b3bab7a4a2dcbaU, 0x9da1968c889a9296U,
  0x9386888c8e85898fU, 0xe3d2bbb09e949593U, 0x95abaca1afc0ccd9U, 0xb7aaa99d9daaafa1U,
  0x9395939593949aa1U, 0x94a3a9a7a3a09492U, 0xb9b1cbc4c0c9a595U, 0x95929592a3adb6b6U,
  0x9395939494959495U, 0x969d848494949594U, 0x9595939393949394U, 0x9494939593949393U,
  0x79767a7d7b7f8f93U, 0x7776929a9b977a80U, 0x959494937e80816dU, 0x6f7b85878f949494U,
  0xac9b87766a54625cU, 0x6d5f616371879da9U, 0x9e9d959494958f82U, 0x77625c687a7e7f9cU,
  0x72637981878e9486U, 0x95897a695e7d7874U, 0x7f858689a49e9395U, 0xa1847e8680848577U,
  0x85828997928597a5U, 0xb89695937a7e7a7dU, 0x819397928d9ca99dU, 0x8fa0b3b0965c4b63U,
  0x80827d929ea29c93U, 0xa2a8af9c92879594U, 0x89471e4c72879da0U, 0xa89c9997909da8a7U,
  0x88848d957f9e93a1U, 0x7d8f95999c99aca4U, 0x9794a29c855b2d52U, 0x809092939da89997U,
  0x868ba5a59e9d97a2U, 0x8d634c5479909586U, 0x9a949c9e9699aaa2U, 0xa7a78694898ea396U,
  0x7e93928b8478909cU, 0x999dabb699645265U, 0x93a2a19a8986979eU, 0x8b7e888fa29a9793U,
  0xad7257647b939996U, 0x8f879097999cafbbU, 0xa28caa9386b0c1aaU, 0x738d939388878885U,
  0x8e95a0adac8c7169U, 0x7d92b0978788848dU, 0x928d867b9d909693U, 0x9b90928c8b95938eU,
  0x6b84848686878f97U, 0x90889e948e9c9576U, 0xaca89d9e999b9484U, 0x8c8c99949392a0a9U,
  0xb0bba18b8e96948cU, 0xa49ca29b927f9793U, 0x9a9babb2b9b8b2aaU, 0x9a9c939097949e9cU,
  0xaba89994abcbb0b3U, 0xaba9b3b2ab9ba0a5U, 0x9da0a2a2a0a8b0adU, 0xa5b8b2b3a4a09c95U,
  0xaca197949e969695U, 0xabacaba39a8f9ea4U, 0xa8a3bbaba5a4a7a8U, 0x99a09a95a2ccb3a9U,
  0xa0939697aaada197U, 0x8fa19eada2a2a49eU, 0xa1a0a399968ea39bU, 0xa2a9a9a199a29980U,
  0x9a9ca7aba7a2a49eU, 0x9681888482928f9eU, 0x97949d97a792a7b3U, 0xa5a0a8a19c9ba099U,
  0x7e8c868c96979ca0U, 0xa1a8adac8c7f7f7eU, 0x9b92899b96959b93U, 0x808185969c9aa0a0U,
  0x88818680828b8080U, 0xa187969e9ea79493U, 0x7b898c888c889796U, 0x8885857a7f767179U,
  0x93a7ac948e82908bU, 0x848e9a90a28c9a9eU, 0x8882827981828179U, 0x878d9e928f848484U,
  0x9a9e959495b69994U, 0x93908786878c9092U, 0x878f86898888908fU, 0x94aaa0857a82978cU,
  0x6c697a7281999493U, 0x979b9a8c817a827dU, 0x7f80898685959092U, 0x8893949395a3a58dU,
  0x6c5e656a575e6876U, 0x697f857a84829682U, 0x93a4a39394847b64U, 0x666a748995949595U,
  0x616376807a7b7676U, 0x87796c626a5d685cU, 0x9494959494949487U, 0x867e828081819393U,
  0x7d7b7e8982768487U, 0x9495949387828c81U, 0x9494949494939394U, 0x9494949494949494U,
  0x9494959494949495U, 0x9494949494949495U, 0x9494949495939394U, 0x8f9495a8a8aa9394U,
  0x9494949494948f8fU, 0x8f8f94938e949394U, 0xaa9b8d7f8785868bU, 0xa39d959a9da39baaU,
  0x9da5949393959394U, 0x8882889ca4a4aa92U, 0x95a5a4a9afa4a4a1U, 0x95948996848b9ea3U,
  0xb7b4b6a2a7a59994U, 0xb1a1a0a4a7a7a7b1U, 0x8f8f96898c9599a7U, 0xa0a7949495afb2a4U,
  0x9c999aa0a1a9af9dU, 0x89868fa5a89ea09aU, 0x889aa9a197877f84U, 0x92929288848ba295U,
  0x9b9da1979b909496U, 0x96928b958c8d979eU, 0x8790b1949badb4a3U, 0x9689858c9094978cU,
  0x978d979da0a59a9aU, 0xa49799928b94929eU, 0x81999e8d8e928794U, 0xa49e908f8c938d8dU,
  0x8e9e97928d908f93U, 0x8d6f8d8ba096ada1U, 0x908989939095939aU, 0x8188848c9ea0938eU,
  0x9092c0b899a4968cU, 0x90898e9b9c798d89U, 0x9cab9d95948b8b99U, 0x93958e8c8688898bU,
  0x998489899797c5bdU, 0x9a8f87908d858c90U, 0x8e959696a4afa59eU, 0xa08b9596847e848eU,
  0x8b81858b7f868894U, 0xa0b4aca5aca89c93U, 0x7a79818f8c928f96U, 0x7d7f80a19ea29773U,
  0xaca89e9b8d7e7a85U, 0x929594969bb3afaaU, 0x87a2947982818b8bU, 0x72665e7f86819b99U,
  0x97aaa3abaca28878U, 0x8e878c8c8e92938fU, 0x85a5a18e87828889U, 0x9b7f492b37506486U,
  0x95949594909ea3a8U, 0x8d957d9b96949996U, 0x39567e8f8ea4a48cU, 0x898f7d6a47230a15U,
  0x9b9d979e9c9b8d95U, 0x9e93a893898e79a8U, 0x50a254f707d8d90U, 0x998d8d8e8c85572aU,
  0x88846c899a949d9dU, 0xa7ac9da1cc8eaa85U, 0x959370464c6d82a0U, 0x899aa79c968b8c92U,
  0xc88c869496898588U, 0x8ca7b0c0bfbdadacU, 0x8f8f8c9597978c81U, 0x92949a8f9399a29aU,
  0xb9b8adadb38eb494U, 0x8d97979eafb9b8bfU, 0x8e9e979b969c9994U, 0xa195be9b97978b8dU,
  0xa5aca8b1b3aaa9b4U, 0x9b968d8e97969ca4U, 0x94908987828f979cU, 0x9c949daa9797a59bU,
  0x9392959d97a19b9dU, 0x8d8d96a5a7969492U, 0xa3b694949488867fU, 0x99969495888ca0a2U,
  0x939d96969390939aU, 0x949b7e807b74828dU, 0xa7a5b4b8a3909494U, 0x87889493959d9da4U,
  0x8d868c7a7388938dU, 0x94a4949494a09087U, 0x96a5a9b0beb2b7b2U, 0x8492958f8688979aU,
  0x949494a09b96908fU, 0x999c9ea3a1949494U, 0x9da290949a999c86U, 0x979ca1aaa3b0ada4U,
  0x9594949493949494U, 0x827b817a78828d93U, 0x81847795a1977e81U, 0x94939394948b8981U,
  0x9395959494949494U, 0x9499a7a794949594U, 0x9394949594939593U, 0x9395939494959394U,
  0xc1afb4b0a9a99693U, 0xaab0abb3bd8ba5bbU, 0x93939394a3a4a1b0U, 0xb7b1a89ea3979494U,
  0xf0c6cbdef9d9e4d5U, 0xb2b1bbc0c6d6d6ddU, 0xaaa295959395a9b6U, 0xabb4b8a79b9c88a5U,
  0xa1a8a0b9beb4bbafU, 0x95909cb7bdada796U, 0x8c959a858ea78f95U, 0xacb3a9ad9da0999dU,
  0x8d909aa2a39ca2b3U, 0x90b09493a1908b86U, 0x868c8d9289819086U, 0x9e97a0aca5a1948fU,
  0xa09e8b8b8c969c9dU, 0x8e7e7881888b9793U, 0x9390898e8b898987U, 0x9a9688878e85868cU,
  0x768f9c94a08ea092U, 0x94978b8f97887977U, 0x85827f7d87888d92U, 0x9e95959494968b80U,
  0xa29c897a8088a593U, 0x878e99999a9a958eU, 0x958d8086867e8c81U, 0x9c969d94a2a27e90U,
  0x959a9ba4a5a19b8fU, 0x827a888285929293U, 0x86a8928f9b968e87U, 0xa7a79e9c8c939d94U,
  0x88998787929c99a0U, 0x9c97958e8b86807fU, 0x8f869a9595aa8c96U, 0x76819293a0a0a09bU,
  0x8e7e707789a88973U, 0xa8b2b6b1a09e9992U, 0x8c8493939b8f9694U, 0x92b39a7a6b738484U,
  0x95969d93857b7679U, 0x9d9695a1b6afb8b0U, 0x7f727b73666b7079U, 0x897f7d86a1b9b999U,
  0xafb4a7ab97949099U, 0x68665b629a8e8794U, 0x9cc4c7af967f726dU, 0x8d8f88888b877b84U,
  0xa08d8b94b0bea194U, 0xaf9588807e7f6b6bU, 0x8b948289a3d4dec2U, 0xa9a2ac97878c897bU,
  0x878d8089a9828b93U, 0xa4c9d3c2bbb2a892U, 0x9789877b89928b90U, 0xa7808b93a7b6bda4U,
  0xb4afa59a8b8e8b9aU, 0x929392959cb6bbbaU, 0xb1b0c4a4948d8989U, 0x928b90a0a87a9492U,
  0x94a0b0b2a8adaaa1U, 0x9c938c9494a09995U, 0x8e808c93aba8d7afU, 0xafb4b8a4a1938f9aU,
  0x95a4a59c9e9dadacU, 0xa2b8c8a1a79d9b9bU, 0xb2a7969699908c95U, 0x9c99a3aaa7afb0afU,
  0xada4a4a49ca39a9cU, 0xa7979e9795c2929cU, 0x999ea2a5b2aca8a7U, 0xa8a29e939a9d9e9bU,
  0x92a19b96aca8a7aaU, 0x9ca9c2b9aa96929aU, 0x949093939295a09cU, 0x8e90a4aca89d9992U,
  0x99a393939280878eU, 0x928e968e86959db1U, 0xaaa096a39d9c9d9aU, 0x95898077829092a4U,
  0x69706f6c779e9493U, 0x9aa09da39a8c8e79U, 0x70797786999094a0U, 0x888e939593a1a088U,
  0x9596847672777076U, 0x716a7f858e82828eU, 0x94a1968679666a80U, 0x826d787d88959495U,
  0x585c666c7d868c90U, 0x927e74787971645aU, 0x9493939494959394U, 0x929aa0999b969796U,
  0x8c858987888e8b84U, 0x95949394958d888bU, 0x9496969093929692U, 0x92928e8b95949796U,
  0x9494939290969395U, 0x9392929594959293U, 0x8e8985928e929494U, 0x6b729ba4999c8e82U,
  0x929490927f7a786cU, 0x7e7b8090a28f9697U, 0x73767a7a8c8c857aU, 0x5c5d585768616961U,
  0x9284969696939e8eU, 0x908e82948e809787U, 0x868c89828ea99488U, 0x949e9b7d74737d8eU,
  0x9d978d90978e9394U, 0xa4acacaaaa968f8fU, 0x8788787d889ba8a2U, 0xa38195908fb6c2acU,
  0xa8938c97a5957997U, 0xb7c4cfc8b4b2a9adU, 0x85accc9a8f9797abU, 0x939092867882a190U,
  0xb0a5a4977d858d8eU, 0xbeb3aa9ea8a5b0b1U, 0x81868e9597b1cdb1U, 0x8c88898e8e9aa9a4U,
  0xa1a5a0999990938cU, 0xabb7d4c5b9aca28cU, 0x9399a0a9888e7ba0U, 0x878089928d969e89U,
  0xa89ba7a3a29e9794U, 0x8c99888dafc0cfbeU, 0x8d949a8f8c93888fU, 0xa999927f6b7e8d93U,
  0x849ab2baab9ea4a9U, 0x9092808780848b94U, 0x637789a0978e9e97U, 0xbfa595959a9c9278U,
  0x7f798e8d86969ac2U, 0xa4999e9d8e8e867dU, 0x9790947b727888a7U, 0x88afb8c1a78d8d84U,
  0x8f978d708185888fU, 0x808ca9b6b2a49589U, 0x9e8c978e948c8985U, 0x8481a19585a0a8adU,
  0xc7b0a4999d938873U, 0x8e96888b9695acc6U, 0xa1adaa9ba4968b87U, 0x9a8e8e7f7873a19dU,
  0x949ca3bfceb49a96U, 0x8d8990817f8c998fU, 0x82969a8e9a949b90U, 0xb7ada4979a979a96U,
  0x82899796969a96aaU, 0xadbb999da0948584U, 0x979a9c9493a1a282U, 0x97948f9ea5a19aa0U,
  0xa38f939490929d97U, 0x9ab49297ac889b89U, 0x97959caab2b8b3a7U, 0x9997a8a08c828e8eU,
  0xa072707fa8a19d97U, 0xbedad5b1a5ad977bU, 0x897e8e858f8995a7U, 0xacada89d9e949d9eU,
  0xb79a82958b77778bU, 0x868f8eaab9d5efbeU, 0x9ea4a0968c808884U, 0x8f86717fabb2b7a7U,
  0xb6c6e2d7c7aba192U, 0x928088888f9ea0a2U, 0x939baca58e97998eU, 0xa4a9938b8f807370U,
  0x94929b95a19e8ca1U, 0x8b808d8d9796968eU, 0x9a8e7d689ab19c93U, 0x97897188a2aa8f8bU,
  0xadb2b8a8b1959b9aU, 0x9eaf9b909a9397a1U, 0xc1b7939097927e7aU, 0xc4b6b1b290797695U,
  0xa1adabb6c1c8c8c2U, 0x92858e84b2a9a09eU, 0x7b787192b09a9595U, 0xb2b9b8b6b4a3a19dU,
  0xaba28f9aa2afa2bdU, 0x94a8909295938e8cU, 0x858b71687e7b717bU, 0x908d878586767871U,
  0x93a79da4a2958987U, 0x856d809597929492U, 0x535b62737f6c6f72U, 0x8d798184797e765dU,
  0x9490969794939487U, 0xa185927f80849692U, 0x807f7f877f787ea0U, 0x949392928d7e7e92U,
  0x9596969393939294U, 0x9497a3a393949595U, 0x9595949494969496U, 0x9294929492949296U,
  0xbac0b6adb2b09693U, 0xb6c4c2aa8c8fb4b7U, 0x93929694a8aab3bbU, 0xdbccada590979293U,
  0x889790d5c7cec9d0U, 0xadc1c5af9aafa08dU, 0x8781929392967f89U, 0xada8b195929b929eU,
  0x94a29e94898e8f95U, 0x959788b3ccccb996U, 0x9688819b7b819294U, 0x9d9d9ba1a4a19d94U,
  0xa2a8958f8f97a79eU, 0x8d8b9694aa9390a0U, 0xb2a394929085729eU, 0x85959ea1a5b0acb7U,
  0xa8a4a3a09c958e85U, 0x957f7b9a7d9b9495U, 0x96969ca2a19a928fU, 0x928e817b7e7f8d92U,
  0x6f9d8193a4949793U, 0x969995948c8d8987U, 0x7a7e858688869090U, 0xa79da5968787867aU,
  0x89958e81729a99a2U, 0x7a7e898d8c8d9488U, 0x7771867d84807f81U, 0x829378938290a087U,
  0x8493938b90968e82U, 0x8b8c867f706c7f80U, 0x82777b8b7a6f878cU, 0x9aa9a58d88807d93U,
  0x68646c818997a194U, 0x927d8d8899908578U, 0x847a909280746d9cU, 0x859cb2aaa3aba588U,
  0x978e7f7665656379U, 0x867789b6ac99a290U, 0xabafa88c87808495U, 0x6f686a778c9eb0abU,
  0xc6b0b09e9a8b8e7eU, 0x85869694827484d4U, 0xaac5c5b9aba5a98eU, 0x9da096958d84798bU,
  0x9b9390afc9c6afa0U, 0xa8aa9e928e768793U, 0x959395a0c4cec4b3U, 0x9caaa7958f9aa2a2U,
  0x948187958d90b49bU, 0xbfc4bfada7979795U, 0x8792a5a29496a1b6U, 0xa4a5d596908f9282U,
  0x96a09d8d8e878894U, 0xa096a5bac1bba4a5U, 0x8d9095928294b1b6U, 0x8e9a81959da1f889U,
  0xbdc0b1a89ca29082U, 0x8f94a9ad9b94a4b2U, 0x9c8cd0948c929da0U, 0xa4a07f849090828dU,
  0x9c96a7b8bfc6b3a3U, 0xa09399978e8f9a9eU, 0x84858e8d8d86c2a4U, 0xbfc1a49a9d897d73U,
  0x8d94959d9e96a0b0U, 0x8c96958fa39d9e96U, 0x8b79818093ad9c92U, 0xa8979cadb1af968bU,
  0x9e9ca0908e93929aU, 0x9aa59494878f8890U, 0xaba0a0887f6d7885U, 0x8c8e99949ca1a0a5U,
  0x939c7d92b7af9b89U, 0x746f7494aba39295U, 0x9697a3aca89b8c80U, 0xb2bdab9794888c90U,
  0x97999596957882a3U, 0x8c7b7f81685f7790U, 0xa89e8f8d979b9c96U, 0x967a93a4c4cbc8b8U,
  0x5d565d6f78939392U, 0x8b8b9089826d6869U, 0xc0b8a9b8ac998197U, 0x939b93939297b3a5U,
  0x6f7b686584a5a2aaU, 0x96897d7d6a6f6c5fU, 0x94999d6b9e9799a3U, 0x99adada996959393U,
  0x708893a18f938f92U, 0xaa7f8795807e8485U, 0x9393959695929496U, 0xa0948d87908f8b8eU,
  0x9a8d84938f9392a5U, 0x939692958482859bU, 0x9493959495959493U, 0x958f929394949495U,
  0x9294939695959295U, 0x9393949496969594U, 0x8085797f7a7a8d94U, 0x878587857b8e7976U,
  0x9493959584879085U, 0x707a8d8982929394U, 0x847856586f778870U, 0x778f9ea5a380928bU,
  0x8193959293949585U, 0x898f807481889987U, 0x92708180737b6574U, 0x9493948ba1aaa9a0U,
  0x7f7e8ea49a938c95U, 0x7f869a9d9493958eU, 0xbbaaaca78e7b8289U, 0x869294938c8189acU,
  0xa3b8c1b09c9ba793U, 0x828986828e888c9dU, 0x8f7292a0aba39595U, 0xa4a5a5968fa99492U,
  0x6479899ba29ca9abU, 0xa3a59c9a95887f6aU, 0xa1aa9b9594909595U, 0x9ca5a99ba9a5a199U,
  0xa09b8d694d5c7789U, 0x969592979e9c9493U, 0xa3a3a096a1b1aa8bU, 0x58617897a8acafa2U,
  0xa193959ba5b0a177U, 0x959ab39e8985a09aU, 0xb1a5a799969baaaaU, 0xa8b7b8895d6286a8U,
  0x867888999596a2a4U, 0x928da4a293a3c29eU, 0x5a5388abb4aca197U, 0x7e97a2a4b1b8c69dU,
  0xa7afb6a986888981U, 0xb7a99d8e8f888d94U, 0xa5b7c5ad654781b2U, 0x95a4886479929099U,
  0x9a828185a5c2bba5U, 0x7a3b6bacc0ab9aa3U, 0x799295979aa8bdb3U, 0x92b8b49590997670U,
  0xaba499a39e8d8988U, 0x8d95afaa864d4f87U, 0x8e7e76707b999ba2U, 0xa5969e948bb89ca0U,
  0x95775e708b959da1U, 0xa2aaa1aba999ababU, 0x9a9d8ea48f76827fU, 0x768d949ca4a4908dU,
  0xb0acaba7a1876662U, 0x9770706da2bdada2U, 0xafaa8d8f908b88a7U, 0xab94746868748599U,
  0x829eb0a8b2aca2a2U, 0x8c9d8b94816d6c70U, 0x6a777f97a4a797abU, 0xa1b7a0a1b1a28165U,
  0x7e82897986859099U, 0x969295a292a99aa2U, 0xa2a58b76686a7794U, 0x7070869296a8a2a1U,
  0x93a2a992a0907e76U, 0x746f79828c858ba7U, 0x928f978c96a28b73U, 0x94b0867d78687a82U,
  0x736b6a79739ca095U, 0x8b9494938c86877dU, 0x7f7e7d7e8b8b948bU, 0x5a7394959aad717dU,
  0xa5a2a3947a6f7461U, 0x828b8f8c8d889097U, 0x95878d979995968bU, 0x9581695f5c749395U,
  0x9087908f9caca9a0U, 0x9294a48f87818284U, 0x6f74929493968d9bU, 0x9aadb19ba0967668U,
  0x8c857e8285898c92U, 0x9393979773779b8cU, 0x9dada08e93979296U, 0x858b939597a7b1a0U,
  0x6d777d6f7274878bU, 0x997b95949492a29aU, 0x928b999090928590U, 0x6b7b95a49d9a9c9bU,
  0x969595947f7b7b5cU, 0x7a797a8993969393U, 0x9e858e747f7a7d7fU, 0x7990937e9ba09aa0U,
  0x9494949595939c95U, 0x889d9d868494a29dU, 0x9eaac2a08e93c58eU, 0x96959595aca2a796U,
  0x9393909094959297U, 0x9593949294959492U, 0x9294929395959692U, 0x9096939496909593U,
  0x93928f898b8f9793U, 0x958f939dadab8e90U, 0x949492928f8b9590U, 0x6c73878695979592U,
  0x99643e587a888076U, 0x9599939a8f968d94U, 0xa7a5959395958d8cU, 0x565f5d6d88878f90U,
  0x969a848687786f68U, 0x9384928995979a9dU, 0x96a0999cb4a59792U, 0xaca9a7b1aa93848fU,
  0x7f8f8c8d9b9d97a0U, 0xa2a996928495978eU, 0xa5969d95a9aca895U, 0x9693a3b2a3a3abb4U,
  0x818892857f90969aU, 0xa3adb1ada39d9d92U, 0x8d8b97a8a3a7a2a0U, 0x9a88909b9789908fU,
  0xb499aa9494b29d9dU, 0x8d96a0a8aaacacc5U, 0x95817a79736f7a8dU, 0x92af9e979d908f96U,
  0xadb6b4c2cca09297U, 0x7671878e8d8f999cU, 0xa89b929ca1997b79U, 0xc1ab9e9ab0cdc2b6U,
  0x978f95a4a7b4afc2U, 0xa4a1938f8d929b9eU, 0x87ccc7b9b7acaba4U, 0xa9a8a7c8b2a89e9dU,
  0xaaa8b3b8a79e9b9cU, 0x99a8a5afb1aa9c96U, 0xa4b1a79e90b3b4a2U, 0xb3a3a3929ba3abbaU,
  0xa8a4929ab6c2c0c5U, 0xa7a5a1907a85859cU, 0x9d99ada49c9ea79bU, 0xacc1bbbfafa7a199U,
  0x6465879aaba29295U, 0x97a2a5a1a59c8157U, 0xa59299999a95a897U, 0x97a39a99b6c4b7aaU,
  0x928d785c5f65809dU, 0x8087909da9bda59bU, 0xbeceb9a28d858886U, 0x7b7684828b949da1U,
  0xafc9a0958d938286U, 0x88817f7669766a8bU, 0x828e88a3c2d3c29dU, 0x9299969b9d9b8d88U,
  0x5b665b74a8c2a592U, 0xb4c6c59d73747862U, 0xa59c9c90938e8893U, 0x9eaaa4978e8497abU,
  0x5f5f666a64716a85U, 0x908b8c92a0ada984U, 0x8f9379acab9ba295U, 0x77888897afa9a190U,
  0x878d896c70717174U, 0xa39a979c8f7f858cU, 0xb8969c99a79c7aaaU, 0x6d85878e8c9ba0a4U,
  0x958788938f7f735cU, 0xa9a17ea2a48e9493U, 0xa3ab9eac9e96ad94U, 0x90857b737a84929bU,
  0xa8a395949392938fU, 0x92a2b1a09b9a5885U, 0x828692a0afb9a1a9U, 0x9594949499948686U,
  0x957b717a9ba5a79dU, 0xb8a7a5a7949aa39eU, 0x9e9b8b899693999cU, 0x909da9a59c999b96U,
  0x94b49392939e7b7eU, 0xa49e9a94999a9ea8U, 0xa3a0a1abb2a7aca5U, 0x90a3786f818c9ca4U,
  0x889b8189bab09290U, 0x9baba49e9e929587U, 0x657a888da194888eU, 0x8fa2929592a47666U,
  0x93908c8b8b947978U, 0x8688848681869297U, 0x9495849281717276U, 0x80787f7f86949495U,
  0x61425f707f7d7687U, 0x8b867b7786858274U, 0x9595929694939392U, 0x86868b84858c9e9cU,
  0x8f92ad938e82aa8bU, 0x93969497a5979b8dU, 0x9392959595949494U, 0x9999a8a594969294U,
  0x9494939393969693U, 0x9292959692969596U, 0xcbbac1b2a9a59c96U, 0xb3c7b7ad9a87c5c1U,
  0x95959592a9adacb7U, 0xbfb4aaaba3999293U, 0x96a19ddbfcdad5d6U, 0xb4c1c2b799a8a0a1U,
  0xa281939593938797U, 0xebdad3cbacb6bf9dU, 0xa1b1b9b1afc1ccd7U, 0x94a08c9cafa2a19cU,
  0xbfb8b6a592859d94U, 0x9ea4abb8c4cdcbc7U, 0x707d7f868999a4a9U, 0xa0979293af9a8477U,
  0x9c9e96a4aba188a3U, 0xa4a2a7a8a3a7a29bU, 0xaaaa9e7769738196U, 0x9494888e81879e96U,
  0xb2a29a897f7a8489U, 0x71848f8f949ba4b0U, 0x7d889995a0868d6bU, 0x82807e7d87949b95U,
  0x8e979da9ac9e9286U, 0xa08084807a7d8881U, 0x899593a08c8b959eU, 0x999a998f90959087U,
  0x848687899093979eU, 0x9797869399908084U, 0x95a097867b857f9cU, 0x9289888486959b99U,
  0x87908e959e92929cU, 0x84877e869a958690U, 0x7190979b9495948eU, 0xcba59d9d93978876U,
  0x889599928e8b79acU, 0x908e9a9d958e8478U, 0xa4938d7a6f8b9690U, 0x9099a0ccd0b3b9abU,
  0x959b8b7e799b8e92U, 0x7e94a39692909592U, 0xcfb9b7aaa093958bU, 0x808190948487a2d9U,
  0xa4969d94908f8685U, 0x9488879799a1b4baU, 0xa794a2c1ceb4a593U, 0x8b8b8b7a71738890U,
  0x9da1b0bdc0a1958eU, 0xb0a5a4877d848990U, 0x6d819989a3b1b4baU, 0xbda594848c88a189U,
  0x7f7b7f8b8d9c9db0U, 0x9a8fc1c2b6a2978bU, 0x8f8f9e92809ca38eU, 0x81888ca7c8bb9d90U,
  0xb7a38888857d7f81U, 0x92968f949ba0bea7U, 0xb4bfad9e99928e8dU, 0x95868e84786c779aU,
  0xaa8fa293a5a28d86U, 0x9d978b93978e969cU, 0x8871768caac0b3a9U, 0x9d9d938799979995U,
  0x9581908c867da28dU, 0xa8c4b2a497929e9dU, 0xa4afaca196888593U, 0x8d88857e8fa19e9aU,
  0x9d9bb1b8b295aa94U, 0xaa9d99a2acb8ab97U, 0x768293999baca2a1U, 0xb0b8ac8d8684826cU,
  0xb4afa5909b9c8caaU, 0x93a3a8a1a9acafb2U, 0x97a77f62717e6f7bU, 0x8e8e7d90b1b6978dU,
  0xacb2bbbabfa9a296U, 0x7082716d7d8d999eU, 0xb7b3939496897d70U, 0xb0a7a2ab8d787685U,
  0x7e8d888e9cabb4aaU, 0x96808c84999d8876U, 0x807e778b93939396U, 0xa1a1aaa79e9c9a9cU,
  0x909ea99587969da9U, 0x7e9c9393958f9694U, 0x8d97928f97a89688U, 0xadabb6a3a2969495U,
  0x929d9e80828c94a1U, 0x9ba8afb2a2929393U, 0x95a59d9e99969595U, 0xa0aaadb0adb8ada1U,
  0x9492959592949396U, 0xa29c86868d8d8c8fU, 0xac9d928b7b8780a3U, 0x9592969595939bb0U,
  0x9493959495959595U, 0x9595949494939394U, 0x9595959495949594U, 0x9495949594949495U,
  0x999c9a949b939795U, 0xabbdcbcbc8c5c2aaU, 0x93959495a3a5a4acU, 0xa5a09b9d9c9b9495U,
  0xc7b19c898882878fU, 0xbde3bfc5d7c2b6c5U, 0xaba89494959393a4U, 0x68697076888c92a0U,
  0xc7baa8a7b0a0967dU, 0x939a96b0abb2c0b9U, 0x727d8089949b9594U, 0xa59c948c7d6f5e65U,
  0xa9a7aca3a3b0aba4U, 0x80ac959493a38487U, 0x8b8d80766b6d7b77U, 0x9ba5a49c9e9e9b8fU,
  0xa09caa9aa1a0a29eU, 0x816b717473a38795U, 0xa7a3a0a19a8d8687U, 0x939b9a99999da5a5U,
  0x71907d938ca1baafU, 0xa9a39b958776715cU, 0xa7afacb8b1b0a4acU, 0x8fabaaaca5a19ea8U,
  0x8e82715771868793U, 0xb3baacacaca7a0a0U, 0xa793939d9b9aa4aaU, 0x6f8d979490a896a8U,
  0xa9aba2a49a7e795cU, 0x777774748da8aba4U, 0xa19ea48978766a66U, 0x9e87877e869ca396U,
  0x618299929aa2a2aaU, 0x5b5a4e4553544f53U, 0x809ca39ea1947d76U, 0x8b8d969b998d818cU,
  0x62706c685e6d8987U, 0xa382766d5f57544cU, 0x9e967f8b89a7a49eU, 0x70727e8e968d939eU,
  0x7d6164707e908574U, 0x90aa9e9ca37e727eU, 0x9c9b8e94a1997b82U, 0x9590847781857e92U,
  0xa4828ca2887b7f8cU, 0x9b8e7d7e82a58ba1U, 0x8e8c7f8899a19492U, 0x8f8d949b96968180U,
  0x7d848ba1a38ba0a7U, 0x939c9990968c8b7bU, 0x8b9a8d888f928186U, 0x897fafa88b849d9aU,
  0x8684877e84778994U, 0x8d99827a94a0a08fU, 0x888d9290887f8182U, 0x907188938ba7b9a5U,
  0x8c9c949087898884U, 0x86827d7f90a08277U, 0x8b99bea4868f8f89U, 0x928c899586729093U,
  0x939b87707384858dU, 0x8b8d8e9287868184U, 0x8b999794848dafa3U, 0x8079888f90958d94U,
  0x90928b8f9ba19c8eU, 0x8789bab0979d9b94U, 0x8e9597958b998094U, 0xa4b2b3b09b8c9090U,
  0xa8afa5a19e9e9d9cU, 0x928b8c959b9db7a8U, 0xafa29d9c999aa39eU, 0x9da7a1acb2b8b4bbU,
  0x94aab7b4adafafa5U, 0x8e8da1a49a8c8494U, 0xafa7a0a4a19b9b95U, 0xa99d94999b9ea4a8U,
  0x9a76949497a8ad99U, 0x969c8e85808f9aa1U, 0x9999a09e9d9e9297U, 0x93a2998f95958693U,
  0x89848781897b9394U, 0x9b909492898e9090U, 0x969a949ba0ada796U, 0x9e8c939493a1a99eU,
  0xa9a0b1a08f847987U, 0xb2aba4a3a3949da8U, 0x94939ca5b0b6a796U, 0x949c90a793959394U,
  0xc0b6babfc6bfbdadU, 0xaab8a495b09ca0bbU, 0x9393949494939494U, 0xacb8a9a1aaa59395U,
  0x8486b2b7a8adbbb1U, 0x9493939593a0a5a3U, 0x9595949594959694U, 0x949ca29d95949393U,
  0x9394959593949595U, 0x9393939393959395U, 0x94b3aaa9aba99796U, 0xabba8f8c7a7f958dU,
  0x93949393a4a9acb1U, 0xc0bead9087969593U, 0x8f9d93c1cde4cbc2U, 0xafc1c6b7a8acb99bU,
  0x828795939594acb3U, 0xb7adb7acb2c0b992U, 0xb1a7aca09ea89da5U, 0x95a0aaababb6bbb6U,
  0x9da1969a80889094U, 0x7f8689949ca09ea3U, 0xa394939b999b9785U, 0x908b959287869b9bU,
  0x84959da2969489a8U, 0x7b80797a7a807f84U, 0x8e78978e907a797eU, 0x9b9290a29c8f8994U,
  0x928e8b827f808e96U, 0x737378727884908dU, 0x9493899389888478U, 0x7d7992908d9c9590U,
  0x78829092979b9485U, 0x84898f866d84807aU, 0x89a1929084909386U, 0x8d928f8b85879793U,
  0x7679807a78787984U, 0x7a8c97897779866cU, 0x939392978d908e74U, 0x8280808289939094U,
  0xa37b5e636d737782U, 0x92978d667a808c89U, 0x7f818b93978e9094U, 0x707e798295909489U,
  0x707d7b8d95797d64U, 0x9495a0a09696806fU, 0x9d9aa49d82788599U, 0x8965715c748d9093U,
  0x9690817a708c8793U, 0x8f848fa1a4a196a7U, 0x85999c99a1a3aaa9U, 0x738b877e8f87857dU,
  0xaba79aa1a09d8f86U, 0x9ea8b4b2a092a0a2U, 0xa5a1a3a3a1a0a495U, 0xa99e94a095848b8dU,
  0xa4939eabaaa7a4a7U, 0xabb0a8a4a3adb7bfU, 0xad84958dafbec59cU, 0xb2ab9eaba8a59397U,
  0xafb2ccc5b49597a5U, 0xb4c8ceaaa5b4adacU, 0xabac96979a878b92U, 0xbfa499a0bdafa1abU,
  0xa7bab9b0a9b3cecdU, 0x949c8795acd5e1a7U, 0xa3ada7aba29e9694U, 0x9db9b6c4c2a89d8cU,
  0x8dd4cba9a0afb6a5U, 0x999297a59a97898bU, 0xb4ad9d8e8d8f8f8fU, 0xa4a1a79ea2a9abb1U,
  0x97937d9494bba59dU, 0x93867b7d8782939dU, 0x8f949a9da2a5908dU, 0x81b685899e999a92U,
  0x87768894959a8693U, 0x89968d8b93827e78U, 0x8c85827672787d85U, 0x8d8d9e9496b78d99U,
  0x8e88828679788e8dU, 0x62666f7a7b8b9096U, 0x937a8590847d7a63U, 0x7972798288889594U,
  0x6c71808f8c938782U, 0x7f785f5a5b555d72U, 0x82809495957b8b92U, 0x828d8d909488777eU,
  0x6f6b635d5d626272U, 0x937e8794867d6c61U, 0xaba28e8786889592U, 0x7d847f8893999da2U,
  0x9d99948f939d9985U, 0x9ba0939493a3b09cU, 0xa4a4a3a5a8a8acaaU, 0x9eb4a1a09eb1a89eU,
  0x93a4ad818f8d9ea5U, 0xacb6b3c1a3959595U, 0xa5b4a7a395b4b0a4U, 0xb3939c9b94999395U,
  0x94949494939495a3U, 0x95a18e8f95908d8fU, 0xa7a19a9dadb18b9bU, 0x95949493999a9aa5U,
  0x9296949394949293U, 0x99a2898694949495U, 0x9396929596949695U, 0x9593929293969696U,
  0x7e8481807d7b8b94U, 0x88807e856f817277U, 0x92959293887f8184U, 0x818f9a7f81939693U,
  0x8897859db0b8b99bU, 0xa09a9b8d878eb093U, 0x828494959395a1a7U, 0xbdb6baafb0b4c69cU,
  0x9d959ba4a09d95acU, 0x95a4a2a58ea3a7a1U, 0xaaaa9b977b879695U, 0x908f9ea9a7acaaacU,
  0xa3949ba2a09e9d92U, 0xa08992949688a8b0U, 0x7d84979797a08dacU, 0x9795948b888e8d85U,
  0x9d94a9a9a39292a1U, 0x878997c09b9c8e94U, 0x95928c8776626f78U, 0x9088859492949292U,
  0x94948e9595a3a499U, 0x84706f6a72818ba8U, 0x8c90939799958e81U, 0x97a9a199808f8f8fU,
  0x62797a8988a0a487U, 0x92949285816f6b5eU, 0x8688998f9288848cU, 0x868589958895ac9bU,
  0x86887d6c6d6f7686U, 0x938e7d81888e9992U, 0x998e808773818d8fU, 0x7e8b848593778892U,
  0x74788c9e92898b80U, 0x647e858492878279U, 0x85787e968c909770U, 0x92959a9989928c7aU,
  0x92828877685b6d93U, 0x767a7e585b6f7e89U, 0x8c8f827e74858896U, 0x776c7a909999969bU,
  0x576d848f9782847eU, 0x797f829381787d55U, 0x9da496a19d938984U, 0x9b909ea0948d9ea3U,
  0xb1978b767a7b8b93U, 0xb1aba0aa9a768d8fU, 0xa99daab4afadb4b3U, 0x82888d9696a2b1bbU,
  0xb9828d8fb4cdb38fU, 0xb2b7b7bbb4b6b0b9U, 0x9ca0bdc2b197a4b3U, 0xabd5c1908c8c8585U,
  0xb8bebaa8b27b8496U, 0xb39ca0b4bbb4b2b3U, 0x95aca89495a8c0c2U, 0xa0978794a7dadc94U,
  0xbabebdbeb8baafa7U, 0x99a8aabfb6a2a7a5U, 0x89aabe7f939cab97U, 0xb8b4b2b7ac959087U,
  0xb3ada5a4a7acb1b4U, 0xa19caba8a4a3a8bdU, 0xad8b8296b4a2b9a1U, 0x9d9e99a0999ba5aaU,
  0xafb1a7adb0a49490U, 0xa8baadadb0a1a4a3U, 0x8d8290a4b08f8792U, 0x8982767d8b84928fU,
  0xaaa59c93a3a59d96U, 0xa889a49694aab9bdU, 0x7a7d80797076889cU, 0x949485817377787aU,
  0x9281a4b3a3a0a193U, 0x64627e95a7909593U, 0x736d73767876736cU, 0x9c9992958b877673U,
  0xafa49292947787b0U, 0x73717370736c7193U, 0x8c7e6d6d747b6b6bU, 0x94807f9c9da09289U,
  0x948d8b8b8c969392U, 0x80817e80847f8b92U, 0xbfafa3a09d978884U, 0x879b949395a2b2a4U,
  0x9a8995abb7b8aa94U, 0xb3a8999c8c999c93U, 0x95a2ad86b2afbdbbU, 0xc1ccbbbda9969393U,
  0x9da49ea397948096U, 0xa88c9db19c8f8895U, 0x9293949594929393U, 0xacaaa196979a9295U,
  0xa490868ca1b28da8U, 0x9394959689848095U, 0x9393959393949494U, 0x9699a5a494949393U,
  0x9394959493959394U, 0x9493939495949394U, 0xa9cdb9b2a4a19d96U, 0xa8bbbac5c0c1ad9cU,
  0x93939494a3a2a4a9U, 0xccb9aca395959593U, 0xeafff6f3f1e2d4d9U, 0x94948f8e95aaabbaU,
  0x979b9495959495a0U, 0x96a1b6aab2b19ca4U, 0x9c999ba39e9ca099U, 0x93958e979d928484U,
  0x9aa7afa387a89594U, 0x8493978f819aa1a9U, 0x89828789908f938bU, 0x87a89495a19e8f8cU,
  0x858996a59d96a3acU, 0x938c8e928b90999bU, 0x948b8482877e948dU, 0xa1968c9d9b8c9394U,
  0x85868c9a938f9a9bU, 0x857a958e8b808880U, 0x9d97a5948e82867aU, 0x8f97a099a09396a0U,
  0x898c80788280818bU, 0xa2807e7e84829694U, 0xaa9ba0a79da5b689U, 0x898d8e8b8e9ba7a2U,
  0x8d898d928c8f8580U, 0x97a1b69e9d957b78U, 0x878f9ca09e9da7a8U, 0x8c8d93898f9e948dU,
  0x928671809296908dU, 0x9d9ca8a88eadc09dU, 0x939e968c8f999c9eU, 0x9999948e8f8d8f8fU,
  0xa2abafa19c797295U, 0x93999d9e9d97aab3U, 0x998d848d8c96928bU, 0xa88481a1a59d9996U,
  0x9e8da9b2b2b4a9a0U, 0x9692818286869aa7U, 0xa09c9b999495848dU, 0xadb8b2a3b07b86adU,
  0x848c92959293a19cU, 0x9b96898c99957a6dU, 0xa88e92b1b3a4a796U, 0x90969b829ec2a794U,
  0x9ba28b6a76858b92U, 0xbdada0909c9b9292U, 0xa1ad8f9da1b2acadU, 0x716c7882888f857bU,
  0x999b9999a3b6a279U, 0x93a4bfaca9afa097U, 0x7d947e86ada88f9eU, 0xaabdaf907f6b6970U,
  0x95999b9494969ea4U, 0xa8a79594a1adc8a1U, 0x96644e5664848289U, 0x979da0a3abbbb7b0U,
  0xa7adc79d8d979399U, 0x6370848da1ab9ca3U, 0xacb7c0c5ac795253U, 0x818f8794949e9e9cU,
  0x81a8a495a4b6ad8fU, 0xc79b6a4d566b7382U, 0x9096a0a4abb4c6cdU, 0xa3ab9c8b7e7d818fU,
  0x6265637a929a9b93U, 0xadb1b4c9bfab7e63U, 0x76777e8b8f949ea4U, 0x8884969b9eaa969bU,
  0xa2a28e7b64697382U, 0x9693999ca4aba7a5U, 0x95a8a39087868c8dU, 0x6a6c7b7f7886999cU,
  0x9d9b92928e8d8c84U, 0x948d95979496959cU, 0x8094949593adada3U, 0x90898e7671797479U,
  0xa1969ea09e9c9d9eU, 0x95a5a495a5a19ea0U, 0x6177747d859d9494U, 0x9e9e999b8e807a66U,
  0x8e878f99a1968d97U, 0xa388949594a0a7a1U, 0x7e7974787f827789U, 0x7e8b8f93938e7b7aU,
  0x9494867a6d73727aU, 0xa48d828486939494U, 0x9085857e847f92a7U, 0x8d908f94a19b9796U,
  0x959394949494978dU, 0x94abbaafa5a09e9cU, 0xadacc2b09aa9b996U, 0x949493959b899094U,
  0x9494949494949494U, 0x959b888794949494U, 0x9494949494949494U, 0x9494949494949494U,
  0x77827a8181828f94U, 0x7e7b8789899d817eU, 0x949494948789897dU, 0x737d8c898c929494U,
  0x7f85785d5a6f666cU, 0x7e82738289928887U, 0x8992949494949e9aU, 0x5e5e6668667d8689U,
  0x969d8d8c7f625452U, 0x948f969280878582U, 0x777f87959e939494U, 0x70685f58615b626cU,
  0x8d8f898084848073U, 0x9389949495a59699U, 0x8572787d858b9085U, 0x7470786f6b787e8bU,
  0x9bad938885858782U, 0x8b909b9599a09994U, 0x93979b9e97909290U, 0x92888d9295999a8fU,
  0xb0aa9e9492a4a496U, 0xa39d9ea5979b979dU, 0xa1acb1acaba3a4a1U, 0x96a5aaa79d95979eU,
  0xa8a49b9bb6a58f8eU, 0xa5a39ca2a4a0a4abU, 0xa9a4a4a8a4afa9adU, 0xa5a2aa9ba8b8d5bfU,
  0xa7a0a3a8aaab9d97U, 0xa5a4a3a0999a979dU, 0xa8c2d9c0b6afaba9U, 0xa9aba5a3a797af9bU,
  0x928d8e949aa5a8a7U, 0xb0afa7a8a3a09499U, 0xa0a3879b97b8c4c0U, 0x9ba9b2adacafb0a9U,
  0x99999c97938c8c90U, 0x97b8b1aba1a89d9cU, 0xafa9afaba3aba296U, 0x90878e90a0acb2b1U,
  0x8d938f9095999996U, 0x9ba29c87a1b1a387U, 0xacabafafb2a3a9acU, 0x939c9795968d95a4U,
  0x97a8997974888e92U, 0xa5a09aafa59aa597U, 0x97969cabada8a5a9U, 0x7a858d9399a0a999U,
  0xa07f95979c89857eU, 0xafa5a0a29a9c929dU, 0x94a1ab9b99999cafU, 0x969b727d828f9394U,
  0x9792888996969797U, 0x9e96a1b0a39d9ba1U, 0x828f949693a1b0a0U, 0x90999694978d7780U,
  0x9a949d9d9a938c88U, 0x909ba5a2a49da4a1U, 0x8c93788289909597U, 0x9493958b889e97a2U,
  0x99969a97928c9096U, 0x888f8f94908f9497U, 0x84a8939492a3787fU, 0x7e797e8b898d8f81U,
  0x96928f8c87868485U, 0x8d8184898e888e94U, 0x7e8685697fa28c94U, 0x88817f7979747a7eU,
  0x9692959b978f928fU, 0x7d939a94977f908cU, 0x797374787b7d786fU, 0x958d8e8c8478797dU,
  0x94898b8d96999d9eU, 0x82797a8889949494U, 0x81827e8886827a7bU, 0x9c9e9c97948f8c89U,
  0xa2a19494949b8e94U, 0x9995858c8e8b8c97U, 0x9296939993969995U, 0x949c9296a8a09d99U,
  0x9ea5a1afa5a19494U, 0xadb2b7afb8ab9996U, 0xa4a7a4aaa79da1b4U, 0x9da0949494887a81U,
  0xe3dec0b1c2bec8b8U, 0xc5c6cfd7c1bdc0c7U, 0x948d8eacb9b2b6b4U, 0xc1b9a9a29c949494U,
  0xb7dae7e2e2d3d9d3U, 0xacb2bebecedacfd3U, 0x949494949494949cU, 0xabaaa5a1a09e9695U,
  0xa1a2a3b0abb3a0a7U, 0x94949494a2a5a29eU, 0x9295959393939592U, 0x999a979395949495U,
  0x9594939394959493U, 0x9495939592939594U, 0x82938b9693949395U, 0x8282a2b3a2a1907fU,
  0x969494939495817fU, 0xa099979592949494U, 0xa8b0ad9a87879c92U, 0x908496968c9396a4U,
  0x8ea492939496959eU, 0xb2b6b6ababaca482U, 0x899babacb0bbbaadU, 0x959290828b92938eU,
  0xa7a9a1ad9ba99d93U, 0xccccc2beb1a3b3a3U, 0x718d7e9592a3adbfU, 0x8ea79495807e796fU,
  0x96979da09ca1959dU, 0x969ea3b0bdb6baa7U, 0x82858e767e8e8e94U, 0x8f97a09cac94a295U,
  0xc8bdb3a59a9e9694U, 0x74878e869eb0b9c6U, 0x869eb192829b9d73U, 0x9490939281928e8dU,
  0xa3aab2ced6c5aba5U, 0x858e80748096959cU, 0x828072707d85b687U, 0xc0b0938e8f8f8e95U,
  0x82a49a9db3b3bac2U, 0x8785a7939dab8d70U, 0x7f8784908d826f79U, 0xb9bdbba995716c77U,
  0x96a09a6385a5a1afU, 0x888978888c8f9a93U, 0x7b4f4d5b6d6d6d7eU, 0x78a8bac1c0beb2a8U,
  0x7b828794949c8d54U, 0x746c6c6d7e807886U, 0xc4afa39a976c4f5cU, 0x89a19b6c729ac2d3U,
  0x7778778c797d8b99U, 0x9a82646b7a8c8578U, 0x697faac6c1a49493U, 0x847e8f8f95948e77U,
  0x868c948f8c858685U, 0xb0a5969692958279U, 0x94ab886c5c668caaU, 0x979c929590959292U,
  0xa0998e808185878bU, 0x6b71748490a1a49dU, 0xa08c9c9399aa8d76U, 0x857f8181909da1a7U,
  0x8193a0a09b8e8f86U, 0x95b08f817382726fU, 0x868ea4b6a7a5a793U, 0x8f88939490948e84U,
  0x8192786b7a87999cU, 0xaa9aa9948fa9908fU, 0x9c9a958b78859cb1U, 0x7f818793979097a0U,
  0x96a2a1998285736aU, 0x7e849592ab9ba3a5U, 0x909294929b9c9090U, 0x938c817b88888c92U,
  0x9585a592a3b0b0a3U, 0x949c9e9d968c8c90U, 0x8c8b8e968d89979aU, 0xa1b8aca8a487817fU,
  0xa89b959ea78ca495U, 0x908d93999ca2a5a3U, 0xa787879299958e94U, 0xacbaa79295b995adU,
  0x9aa09da2a7a59b9aU, 0xa19a93998c8c9697U, 0x96858fa9aa929092U, 0xb1b8ad979ccd9a8fU,
  0x909a9597a0a5a4acU, 0xa3968784888e8f92U, 0x90b194949a7b8fabU, 0xa2a0a0aaafa59682U,
  0x88908d8c8d97a2a1U, 0x93818fa8a9ad8b82U, 0x9c9ca5b0a3a19595U, 0x948f979699959595U,
  0xafa8a597909aa39cU, 0x95a8949395a2b4c0U, 0xa39da4bba7aab8abU, 0xa7acabb09ea3a9afU,
  0x95a3a4ab9e94b8c4U, 0xd9a79e9ba0929395U, 0xb1bdb8b0c5d6d6deU, 0x959bb7cfb9c6cddaU,
  0x9592949692939393U, 0xb0b0a2a1a09d9494U, 0xa89ca1a5acacababU, 0x9296949393979ba9U,
  0x9495949495939595U, 0x94939b9d94949594U, 0x9494949594959493U, 0x9493949494949494U,
  0xb0b3c1b4acab9996U, 0xadb9c1b1b094c2baU, 0x94939493a5a4a5b7U, 0xc4b4b1aca39b9493U,
  0x9a959ab3bba89cc4U, 0xb9b8b0b0b2a7a9afU, 0xa88b939494949da5U, 0xa29b9ab7b2b3b2acU,
  0xc0b8b7b7ada79ba0U, 0x958090a2b0a1a4cbU, 0xa9a8adb9a58c9494U, 0xa39ba09d9ba9acacU,
  0x8796a8abacada8a5U, 0xaaa49394938e7671U, 0x8f9aa2aaadaca3aaU, 0xa09a969c9797928cU,
  0x8e81787476848f94U, 0x9a9a9eb1b09b9593U, 0x888d848585829499U, 0x6d748781808f8084U,
  0xa88ea7958c7a637aU, 0x7f858f8c9b969da8U, 0x82817d7a777d7b7dU, 0x817963786a6f7f7fU,
  0x9b9b9bac9c82ba9bU, 0x8e8587867a81858eU, 0x7e878b847d84868eU, 0xa992b29e88727477U,
  0x958b89949da2a7c2U, 0x86888e9aa1b0aca5U, 0x9e848c8d9b9a998fU, 0x959aa2b3b6adcba0U,
  0x9dbfd3b7b1a9a195U, 0xa5a59a9e94909093U, 0xc1bbbfa596929ba9U, 0xcbbfaf9d958d96b6U,
  0x9ea3948d8ea0c4ceU, 0xa06c86a9aaa1999dU, 0xa29495a0adacb1a2U, 0x8f8c8eadc2bdb6b1U,
  0xb9a2909696a5a09cU, 0xa4b3b4949c8b93afU, 0x9aadaba4a5b0a29bU, 0x9d9e999c92846f85U,
  0x7a728fb6bda8a195U, 0x99a2a88d94c2aa92U, 0x9487667384909499U, 0xc2b8b3a4a79b9594U,
  0x90aa92967e7184b2U, 0x7f8884889ea1a092U, 0xa09a907e85816368U, 0x866c80aabfc2b8b2U,
  0x96909b978da3979dU, 0x707a70657b859094U, 0xb0bdb3a9a0937a6aU, 0x928e9693865e7aa9U,
  0x8c928f969c8c9694U, 0x9d8e876c6b7d7f7fU, 0x92627a92a9b7ada3U, 0xa48b8e8d9c9094a5U,
  0x747f878b95929aa5U, 0x93afb09d9c969480U, 0x9085a4937d748b77U, 0x9ba0a3a4938b8d8dU,
  0xa299a295868c9ca9U, 0x8272808286959797U, 0x8b7f817881789b94U, 0xa7a8acada4ada892U,
  0x7e888c9599a1a8acU, 0x7e8b9a9495766a78U, 0x9c978d887d766a64U, 0x97a3a9b2b6ada9a3U,
  0x93967a636f787e8fU, 0x7471626c7f909595U, 0xb2a5a39a8e8c897aU, 0x6b787685929ba1abU,
  0xaba09593949e825aU, 0x8e8c85797a808596U, 0x8992909a9d999492U, 0x948d8776566c7274U,
  0xa397a3b1969a9594U, 0x9da3a8a49b958ba0U, 0x65707a788690a3a0U, 0x8b9294949495827dU,
  0xa89b9db6b4b2a7a2U, 0xb8abadbda7a5afb4U, 0x959593967b898f9cU, 0xab958c858c959393U,
  0xac9dadadaf9ea3b0U, 0xb2af9796c0bdb1a9U, 0x9395949593949a93U, 0x9ab3adbba9a9a49dU,
  0xa3adc4a3939bb18fU, 0x93939495a3a2a294U, 0x9494949593959494U, 0x979d8b8994939494U,
  0x9493949594949594U, 0x9494959594939395U, 0x8b88898d97979494U, 0x818d959c86898284U,
  0x93959495948f7d7dU, 0x92978f8f8f949493U, 0x96999297a1adaf9dU, 0x9584878786879099U,
  0x969c94949494a2a0U, 0xbbbbbeb096a59697U, 0x8d9ba5a8a4acafb7U, 0x9594a08c6f76828bU,
  0xa4a79993aa9e9795U, 0x9da0a3afb8b6b9b6U, 0x7f88868c96a29ca0U, 0xad96949493a09d90U,
  0xabacb0b3b2aca2acU, 0x9599949d969399a3U, 0x929090929aa2949aU, 0xacb4b6b3ac9d9694U,
  0x9ba0a3a4aab7afa9U, 0x9b9d979ba0a7a09eU, 0xbfa7aa948c8b8c9cU, 0xb4b1abaca9acb1b7U,
  0xa9acaba8a9bbbeb6U, 0x8c848e9399a0979cU, 0x9a959da7b49ea395U, 0xb1c1b4b0b4afa1a0U,
  0x9e9e909a9ca0a4a5U, 0x9c9c9e959a8e8d87U, 0x8086848b87848688U, 0x898e94948d807480U,
  0xa08f816f959d8689U, 0x6373737293969b94U, 0x684e3a3e4c565865U, 0x7b898b8781848782U,
  0x818e95949e949c78U, 0x5244312636505758U, 0x8586868677635452U, 0x8f889d8e7a807f87U,
  0x2c36414b76888f95U, 0x868484857e714c31U, 0x74817e828186898dU, 0x77948f898e96a396U,
  0x999386706c5a4b52U, 0x898d8f8f8c99a1a1U, 0x97a7a49a81858982U, 0xa19a7d768294929eU,
  0x929b9b9c9ba0a89dU, 0x9285898c96a0948fU, 0x9a939a9ca0b3a4a1U, 0x92a0a5a0aab7b19eU,
  0x9ea097929693928eU, 0xa1a4a4b6967e8f93U, 0x9db4bdafa99ca294U, 0x949396968e979c94U,
  0x948990949e999699U, 0xa49ea093a2a3a3a0U, 0x8f92909096a4aaaaU, 0x9b94979b96928f92U,
  0xb0acb69d868e8f90U, 0x969ea3a2a79ba58fU, 0x999996938c8e9293U, 0x888c9396a39c9ea1U,
  0x979ba08cadbdb6a0U, 0x9997949a999aa2a2U, 0x9ba0a29ba2a1a29eU, 0x9eb2a19693939da2U,
  0x979ea8a3b2a4a495U, 0x9d9da09da39b9c9aU, 0x9a959c9c979b9b97U, 0xa8afb38d8baba19bU,
  0x999a969294949094U, 0x9a969b9993929ca0U, 0x95b0afa9a49e9e9bU, 0x9a908e99a4b4978dU,
  0x9795929293959094U, 0xa5a19a9c99949a9bU, 0xb0b19494958493a4U, 0x958e9493a49d9ea5U,
  0x8784878f9a949790U, 0x938b8b9ea2a2948fU, 0xa7a2a3beaaad9494U, 0x9b999d9e9995a4a2U,
  0x889c9d827d86948dU, 0xa28e939495a5a1adU, 0xbbb7c8c0b7adb2b6U, 0x84859399a5a4b3c1U,
  0x94a59b9e96998780U, 0x9c8f8f9094959493U, 0xbdada29ca3aba5a2U, 0x9ba3a09aa7a5a8b7U,
  0x9595949494949594U, 0xb0abab9596969595U, 0x94949ea7b4afb1a7U, 0x9594959593949395U,
  0x9494939295929494U, 0x9595939493959594U, 0x9595949494949392U, 0x9495949493949596U,
  0xa897949595939593U, 0x938ea8a8a897a9a4U, 0x9395959493929393U, 0x9d9793a2a2959293U,
  0x687a8e8f78718087U, 0x847e85737666767dU, 0xa296959394949388U, 0x85868786747b7a90U,
  0x776f7e726f707a7fU, 0x93a3a99586807d81U, 0x6c6b74899d959495U, 0x9389817d867d8273U,
  0x786b5b6268777f7dU, 0x8e87949587a79785U, 0x86787b7771787b85U, 0x6d7277787f889488U,
  0x828ba1786670766fU, 0x8188909ea7aa8695U, 0x9ca7a49694887880U, 0x7a8da79b9ea2a295U,
  0xa8ab8594949a9776U, 0x9ca08c88877f7f94U, 0xb1bdc4c0b9b3b0aaU, 0x9684888e9aa0b2b0U,
  0x9b8d8481a297a19eU, 0xcbc1b1b4abb09b9cU, 0xa4a5a8adb3c5ced5U, 0xa590af9ea5908b94U,
  0xadbbb1a0a39b928dU, 0xadbec0c5cccbb9b1U, 0xada1a0a9a2a49ca5U, 0xa9aba79ea7a0b1a1U,
  0xb7c5b1a4abaab2afU, 0xb1a99d9ea3a9a4adU, 0xb4b4ada0a8b49babU, 0xa39d9aabaaaba3a8U,
  0x9d9a8e8896a7a396U, 0xa0b7a1afb3afa3a8U, 0x96a0a4acafb7b29cU, 0x808c817d8b908e95U,
  0xaaa9a1a7a5948776U, 0xa4b9b1889aa48d9cU, 0x8088878c87898da1U, 0xa28d817d7b848080U,
  0xa18f8186949a9ca3U, 0x827f898f9ab79c9bU, 0x8282828280878687U, 0x8f8ba0a19c938477U,
  0x787b8fa2a0a17e97U, 0x898e878789849090U, 0x9492897b7a767f86U, 0xaa9289aa938b97a0U,
  0x8b8b938f707288a3U, 0x796f778e9797898bU, 0x8b908e8d7f7f8d86U, 0x7a7a8692a59a8495U,
  0x999a95938f95998fU, 0x7d818f8b87787b8eU, 0xafa9b6a986938987U, 0x96979287697982a8U,
  0x8682828e9ea0979aU, 0x8f9e8e8781898e87U, 0x6588a790a4b6afabU, 0x949c969d97998f82U,
  0x8f928d81868b909bU, 0x96a2adc19ea39090U, 0x8f99a38c6f809e95U, 0x888b999c959a929cU,
  0x9a948f8f99938c81U, 0x877d8e92948fc2b9U, 0x9094948ea4bdaf9dU, 0x97948d8986858b96U,
  0x97aaa5a5867e868bU, 0xafbfab8884798993U, 0x959c96979396a1a3U, 0x868578767f949292U,
  0x5e729495978e8e92U, 0xa19e96a0a2979484U, 0x747b9097999ea1a3U, 0x94797f9a9ba57a70U,
  0x9488a09a7d939493U, 0xa096a0a394958f9aU, 0x9ca29e958e929095U, 0xaa8b939394817190U,
  0x998f9a9d99929da2U, 0xbaa8adb1a8a3979aU, 0x9384929babafc1c1U, 0xb999939aa4939494U,
  0xcfeed2bdcccccbbfU, 0x9eb7c1d6cbcfccd4U, 0x939393959493999bU, 0xb7bdb2a9a3a8a39cU,
  0xb6bfcdc4c5d6e1b7U, 0x93959495a7a4a0b7U, 0x9494959496959594U, 0x8f8fa1a393959695U,
  0x9393959495959493U, 0x9395939395949494U, 0xbabdbbb1b3af9c95U, 0xb0c7a48b93a1bdb3U,
  0x95949494a2a9b3b9U, 0xb7acb2aa99969395U, 0xa2a794a0a19a9dbbU, 0x93cbbeb4acb0b1a5U,
  0xa28e939495937f7dU, 0xa3999ba4a7ac99a3U, 0xaab6ac9b92828b90U, 0x95a28295c7bfb4abU,
  0xa1897d888f8e9494U, 0x938b8e959b92928fU, 0xbba8a99e9394999cU, 0x7b999492a3af9cafU,
  0x9a96949086766d6bU, 0x8c878986858e8f94U, 0xa3b3adb0a5999a95U, 0x8c79816d6aa39393U,
  0x92969599938e8c8cU, 0xa7a196999e898b8cU, 0x669d8f94a3b7deb9U, 0x93a09d9a897b876fU,
  0x99979b9ba495938bU, 0xadbbc9beada3a495U, 0x8f8b8876819590a9U, 0x928781858e99a9a0U,
  0x9589978b80899096U, 0x87898e95a8c5e7c1U, 0x97a2b1ac9687766cU, 0x80767d827e695e77U,
  0x8ba9d7d097858986U, 0xa590747a72778b93U, 0x805f5784abbec5b9U, 0xb29c9387867d7a81U,
  0x5b738d948b9aabe0U, 0xc1c6c2bfb8a38665U, 0x8986898b8577729dU, 0x93a9a8d4c5a4a18eU,
  0xb6af89626a7e8893U, 0x8f7e88abc6beb4b1U, 0xcea9af99898b8c93U, 0x688592937d747ebaU,
  0xc7c6b8b0b8a9926bU, 0x93948d9aa18e95b3U, 0x7d626d84b3bbaa9dU, 0xa99c8b736f8c8fa0U,
  0x9d979cb1c8baafaaU, 0x9aada7968e94a299U, 0x6fa39497815e707dU, 0xbbb9abaaa990806cU,
  0x8b90958f90969babU, 0x8177857d9a9a9d92U, 0x9d89795565859485U, 0x939696a4aba89ab0U,
  0x93929496948e938eU, 0x688688937e6c8787U, 0xadb0a7a1978d795aU, 0x96959696979aa0a7U,
  0x6f6c6c8c9693949eU, 0x9494826271828b97U, 0x9c9ca7ada8a99d99U, 0x8785879595948f8eU,
  0x777b86937d735d79U, 0xa39e93978d8f8062U, 0x9692898b9b9c97a9U, 0x8872637e898b8490U,
  0x857a786f8795a093U, 0xa79d9ca79e9c8c8dU, 0x898f878b8e8f8e90U, 0x97958f9596778077U,
  0x9e9390887e707a81U, 0x858b9a9aa9a5a4a2U, 0x95927b7a93998d89U, 0x7a6f8799a1949394U,
  0xa9a79ea0948f8881U, 0x9690898487879b9eU, 0xa79e9595929e8480U, 0x8488889382858c93U,
  0x93969ba7a8a5998eU, 0x948d8c8ca0948f8bU, 0x80818b888c929495U, 0xa09b9999978e8c88U,
  0x9b9380969e9a90a4U, 0x9a9e9594957d6b78U, 0x8c8e8174787e8089U, 0x9ba7a39697968f80U,
  0x958484acc1ad9b9dU, 0x7b7a88a8a0949494U, 0x788b8d9c88797b82U, 0x977a848d7e858b80U,
  0x9595949394949388U, 0x978686727d898e93U, 0x8886728790877999U, 0x96959493897d7d7fU,
  0x9393959595949494U, 0x94948d8d94949494U, 0x9494939493939595U, 0x9595959593959494U,
  0x95959a9b94939595U, 0x949594939495979aU, 0x9495959594949493U, 0x8b94959393949594U,
  0x9094949595939997U, 0x949494a9aca9a08eU, 0x9493949493949394U, 0x958487a9a5a1a7a0U,
  0xb7b1a38882929390U, 0x9494959490999aa4U, 0x93958ea5a7979594U, 0x9e9d93929d968b90U,
  0x9da79d8e9aaba29aU, 0xbfa093948b9ba9a3U, 0x999794909c9d99b2U, 0x888e94928f909999U,
  0x8e9eb1a7a99a8e9aU, 0x8f9294afa2a5a393U, 0x9ca4a99c9992908eU, 0x9e9999a29c9d9b9dU,
  0x8faab095a8abb9acU, 0x979290948f949a97U, 0x9ea0a1a4a2a9a5a1U, 0xabacb09a8997949dU,
  0x928f9a9b97959d95U, 0xa09d9b9495929393U, 0x8c97949495909aa0U, 0xa19a9593a5b1a095U,
  0x9595929796938695U, 0x8b89898c92949c97U, 0x9596ab968b898b90U, 0x908b8795b08c8d94U,
  0x8588929e9b958f95U, 0x86808893898e8e87U, 0x9a8c8e929baaa196U, 0x95929794938f8c9bU,
  0x908f938f8c89858cU, 0xa4aaaca19c868d99U, 0x939290a085888e8eU, 0x94a2a093949c9692U,
  0x9a8e8494898f908eU, 0x7b81819396a0a997U, 0x9e9b949095979ba3U, 0x8d8e909493a5afa8U,
  0x927e929087827987U, 0xa29a8e9e78849aa1U, 0x9ca2a1a59d9c9e9dU, 0x6f7e8488848c9096U,
  0x7e9ea1a0927b6d78U, 0xacb0a99b978c858dU, 0x85888d9797969eaaU, 0x94976671868d8f93U,
  0x7968696c94b3a195U, 0x898ca7bfc7bfa287U, 0x9c99938f8c928c8dU, 0xacb09e9393737287U,
  0xb4a3776866545f72U, 0x92968d8587829cb0U, 0x9377777f96979d95U, 0x3a48577fb0b7a29cU,
  0x82716356442f1a23U, 0x9da7aba8a29a978dU, 0xa9a98d949485847aU, 0x14001e33455a6985U,
  0xa29d9a9286785d33U, 0x93959284a4abaaa8U, 0x7e767f95bab3ab93U, 0x8e8b7a625f5b6b78U,
  0xa4a4a7a89d9e9990U, 0xc1b0ab949a949995U, 0x9da4a49d9b948db0U, 0x9b9792929092979dU,
  0x938c958897969ca0U, 0xa099a2afa8b99d95U, 0x93959ca9b6bdb0a7U, 0x94908894888e8f8fU,
  0xa8af959495899093U, 0xb1b4b1afa4a8afbaU, 0x82818f949aa29da2U, 0x949392948f89808dU,
  0xb0beb8bda9939594U, 0x999b9d9da7b7b4adU, 0xaba5a59b888d9a95U, 0x999e9395948e9397U,
  0xabafbab9bec0bfbaU, 0xb1a4b2aca4a3abb4U, 0x9395a4a3b6bbb8b8U, 0xa3b3afa394959493U,
  0xa7b1aca9a1a49b99U, 0xaf9da4b4a4a3b1b2U, 0x9494949593949494U, 0xa29a99a3a1a08f93U,
  0x968c899d97a189a0U, 0x9494949494888d92U, 0x9295929695939694U, 0x8f89a0a295949295U,
  0x9696939294939695U, 0x9296949692929393U, 0xb9c0b3a5978f9796U, 0xa5bec1b3b8c0cbb8U,
  0x939695948e8f9ba0U, 0xc4b4a3a7a4959492U, 0xadc6bbb6bdb8a5beU, 0xacb799979ca3a4a7U,
  0xa89a959496969c94U, 0xa9b3b3ada49b92b0U, 0xa89e9da1a0a1aaa4U, 0x9493a5aa96979599U,
  0x947f7b9da4929594U, 0x958d89969c979793U, 0x99acaca7a2aca799U, 0x8793929293a08b86U,
  0x9ca5999689887f7dU, 0x9ea29a8c8f909593U, 0x95a4858b95aaab97U, 0x9388a19282a59692U,
  0x828893999e978d96U, 0x9397938f96928e8eU, 0x81a1ad998295a792U, 0xb2b1a2959ea1a582U,
  0x9c9b9b978b858ba0U, 0x828cafa486878892U, 0x949ca28496c1ab9aU, 0x8e7f7da8baafad9dU,
  0x888892898d939394U, 0xa7b8b6998687a09eU, 0xc9baaba195979795U, 0x7b828d8d7b666a9dU,
  0xa0879d9a857f8881U, 0x9b959e9ba7bbc899U, 0x845a4b88c2cbbba9U, 0x7f87928d7e819495U,
  0x97acbea0a08eb999U, 0xadc8baada4a89990U, 0x889ca2a08b654e74U, 0xa37d88a2a0969c99U,
  0xb4baa29e9ccbc0a1U, 0x846f616297bbbbb4U, 0xbfac9d998897a29dU, 0x94c2b993898d82b7U,
  0x86abadadbdbab6b8U, 0x87929c907b766a69U, 0x817d97a8b7b8a88dU, 0xbebac0c18bbba299U,
  0x706a6d707890a7b0U, 0xb9bea3a095979d93U, 0x92b7909e857a81afU, 0x819399a7bbb2b6a7U,
  0x9e9d9c85685a7179U, 0x7f868493a8afada3U, 0xb1a9ad928c968fa3U, 0x745c6b7980899bb0U,
  0x9aadb2ac9d9c9586U, 0x89958d967f868793U, 0x8c9ba4a29e9ca48dU, 0x9eada89a7a69697dU,
  0x8089868e8ba3a9a5U, 0x968f89979e999292U, 0x7f6f628299a8afa5U, 0x7f92a8a8a9b2b2a5U,
  0xb2a29b957d7e7e89U, 0x999c9b9d969385a3U, 0xa1aaaba993795a7aU, 0x907f8d99808999a3U,
  0x818894a0a79e9295U, 0xad946c7a8584908eU, 0x818480879ba1abb8U, 0x8d84879696869d99U,
  0x81867f857e859493U, 0x8596a1b6bba78582U, 0x969e909986898c88U, 0x7d798c8277809094U,
  0xb6b29d898578777aU, 0x938d8d8d9296a3b0U, 0x948b94939ca08b7fU, 0x8985767877858f76U,
  0x9492a9acb3b6a097U, 0x969a908984819396U, 0x7b899494998b9293U, 0xb9a9a9a3928b8277U,
  0x879da4a29096b7b0U, 0x997d9393938b8587U, 0x8c7a8e877f8c8288U, 0x9ea49da8aaa99e96U,
  0x958fa1aaa9b7a594U, 0xb19e8d8692959393U, 0xb6a1a8b0b0a7c5d3U, 0x80a2adb1c9afb6b9U,
  0x949593929393928bU, 0xcbcbcbb6a9a09496U, 0xb0c2cfaba4bac4b7U, 0x94949295a0a5a7a3U,
  0x9494949395949593U, 0x9a9b9a9995949493U, 0x9595949393959493U, 0x9394959595949593U,
  0x8d86899095949494U, 0x8b909ea3817a8d8dU, 0x949495959395948fU, 0x8f9e998c94949595U,
  0x9a9d968f94929b93U, 0x8481777973979d9dU, 0xaca4939495959690U, 0x968c96979ba18c9cU,
  0x9b9689909797979eU, 0x94888f8c80939694U, 0x93968f8baca49595U, 0xa2a09995998d8780U,
  0xa5a5999c9e9b99a4U, 0xb1ab95957f87a2a2U, 0x929797908e8d8ea3U, 0x8d8d8b979b938b87U,
  0x7f8193a0ab9e9485U, 0x9d9994b6bba29494U, 0x8f908687909ca2a4U, 0x9b8f8f8c95969696U,
  0xc0b0a9948e9b97acU, 0x909a9ea2a0a19cb3U, 0xa1a19c92868f9290U, 0x8e9e9a9aa0a79b9eU,
  0xa0a2a1aaa2b2b082U, 0xa1a59a99a2a4a3a5U, 0xaaaca39ea8a8a49cU, 0xa7bda9a0a1a89e96U,
  0xa7a8a3a9afb3b6adU, 0x99a3adb8bbb3aaa7U, 0x9d8d8c89939a9595U, 0xaab2b8aab1bdb19dU,
  0xb1a3a09ba4aca5a7U, 0x707f818b9693a2b2U, 0xa4ada3a1a2ad967bU, 0x84959a96a4a9a5a4U,
  0x8e908e9b8e6a5565U, 0x93ab9a68797a7982U, 0x8e87878887a9a49eU, 0x88612932526c8086U,
  0x6b78777b87939493U, 0x7aa2a39c9ba1a379U, 0x3446585d5f5d616bU, 0x86979c8f88815732U,
  0xa7b3a48f77797879U, 0x3a39365d79a49595U, 0x878d7d6a5d4d3a31U, 0x8185858495a1968dU,
  0x789c88a3a2b39b81U, 0x8b7a624b3a453961U, 0x9496908e8e949990U, 0xa4aa99908f94928fU,
  0x7b785b627d999ea5U, 0x8b93a39a93909381U, 0x95999d96a097908eU, 0x859ea293a0b1b4a1U,
  0x90929b9c9b9d8c84U, 0x9b9799928f969c9aU, 0xaabfc1a592929695U, 0xa7a8b0aca8a2a095U,
  0x96a0a89c8f88949dU, 0x9492958e99909b99U, 0xaaad998fa5adb39aU, 0x998c97abafb2b2b8U,
  0x9a8e949ba3a7afa1U, 0x9eaba794948e9595U, 0xafafadb6c0b6a795U, 0x9e9ea2a2a196a1acU,
  0xa2969a939496949cU, 0xb2b0a78f92bab9a7U, 0x9ea2a5a19a9ba3a9U, 0x9e9e979c9e9e9ea1U,
  0x94adb0ada8a9a099U, 0x9a9daaa797b0928eU, 0x9e97948f92979794U, 0x9ea89e9ea49c9c9bU,
  0x92ac9393948fa9a5U, 0x9b9a968ea1acaca4U, 0x9aa1968e938f9292U, 0x94a3a3a49d999292U,
  0x9baaaab39b9d9494U, 0x939990909388908fU, 0x9c938979808fa08eU, 0xaf8d939495a3b6bbU,
  0xa297a3acaca99da9U, 0x929a979c97a5a7acU, 0x94a39e8284898d81U, 0xa98b848494939594U,
  0x9b9a9792939296a3U, 0x928b8c8ca39b928cU, 0x9594949495939e93U, 0x9eb9a0b8b3ab9b97U,
  0x998eb3a4a8a2b49aU, 0x9495959493888587U, 0x9494959593929594U, 0x9495939494949395U,
  0x9393939595939595U, 0x9393949494949493U, 0x88766d7881818e93U, 0x7d71626b5e9b8f8fU,
  0x959394948987807bU, 0x71777b8986939495U, 0x637e8670645f6255U, 0x8582827a746f685cU,
  0x7797939493939693U, 0x766c6366776d7b7aU, 0x7a768892948b7b6bU, 0x938e9c8c7d877773U,
  0x92928c89859c9393U, 0x908c8d87877e8785U, 0x8f927e9e9ca4a797U, 0x8c87939395808d8eU,
  0x928d8e9089939289U, 0xb4b3aa9b96929a93U, 0x946f6b7a899297acU, 0x8d9b978b858e9595U,
  0x9d9aa09697968e82U, 0x909ea4afb6ada09bU, 0x959b7d95a0766973U, 0xa19a957e879aa2a1U,
  0xabab998b8e939d9dU, 0x996f7a858d9aa19eU, 0x8b969ca59da58c9cU, 0x8988858c9092938fU,
  0x9694a3a8b4b8a78eU, 0x9b9278928d708287U, 0x7a8e948e939da48fU, 0xc7ceb28f7f79817aU,
  0x8b726d8b99909ab0U, 0x96a5a98593906c93U, 0x646373787e7d8b8cU, 0x97a1a2a7c0c9aa74U,
  0x877d6a928c737677U, 0x7f8485898ea79e8dU, 0xbab78b5c575e747dU, 0x8d7b7d738ba2a1a9U,
  0x87a8a0978b7d7995U, 0x47647a8684817f80U, 0x94aaa9a8b39e7145U, 0x8d7a88948d82797dU,
  0x8580828994a3a1a4U, 0xad9976534b657887U, 0x8c8c948892a8b2b0U, 0xb4b2aaaf90687b93U,
  0x5865768686858ea0U, 0x7e9cadbab69e7e64U, 0x9b71889095a79790U, 0x8d929cb3b4adb09aU,
  0xb9ab8769616b7d8bU, 0x96a1818e7a8996acU, 0xb0afaa939081818fU, 0x69718e9b9e9da2acU,
  0x7288929eb0c1aa80U, 0x8d9782959ca46f7eU, 0xa8a8a1a1acab9e96U, 0xa1b7bb9a7d778d9bU,
  0xa5a4887b7086858fU, 0xa8a49b947f958b94U, 0x8d828693a2aba09cU, 0x81848690a0b3bba8U,
  0x87869794aaab8e79U, 0xa5aca5a2a4a5a292U, 0xa0abb3aa94878794U, 0xa3af99848c8b9397U,
  0x93a2b09ca0a0a395U, 0x9d8d808ea1a29b96U, 0x8e8da2a4a8a3a5abU, 0xa4a0a19494ab8e99U,
  0x908e8b8c92aaa59bU, 0xa79e9da1968c8788U, 0x948186a2999ca2a3U, 0xa7a89b8792999593U,
  0x939094999a9295a0U, 0x97afaaa19d9c978eU, 0x82799295947f8ba4U, 0xa0999ca0a3978474U,
  0x9b928d848f9a979dU, 0x958187999eadb1a4U, 0x94867b6c79879593U, 0x7d80879996959e92U,
  0xc5c0b0a88f8e8878U, 0x8d9c94959593b0a5U, 0x74737370828ea195U, 0x908079737379706fU,
  0x939399829db2c9b4U, 0x95acb0a595949394U, 0x70807e7f6f787970U, 0xacadbaa78c7d6c74U,
  0x95949495949590a4U, 0x7d6c82939b90888fU, 0x978676715b5b5f7eU, 0x959595938297a2a3U,
  0x9693939594939294U, 0x9292a4a596939395U, 0x9295949296929595U, 0x9595949592929392U,
  0xa3baa79e97979a97U, 0xb3b28b7f99b2a293U, 0x92929594aaa7adbfU, 0x9592a49785969396U,
  0xacadb6b4ab92808eU, 0x96d2bebdc0b1bab3U, 0x888d949496938284U, 0x8b8d857d8e969390U,
  0xa3a49d85898d828bU, 0x939d859cc2beb0a1U, 0x767372898f8f9295U, 0x85807379787b7164U,
  0xcfbfbaa99e969d90U, 0x8ba59495a08d8ba4U, 0x7e77737162697e88U, 0xa8969486858b888cU,
  0xa49e95b1b0a7a5a5U, 0x6366748080998093U, 0x968e828d8b7e7272U, 0xb2a0a3aaab99968eU,
  0x828f7f95a895a1adU, 0x95999571646d7d81U, 0x9e97979397909293U, 0xa4a295a3b1a8a9a5U,
  0x7d8f868b8488738bU, 0x8994a5aca1969784U, 0x9993968b86888287U, 0x79828d8b93a1a7abU,
  0xa799927471777173U, 0x7677747d7a899dabU, 0x808b90ab8f858471U, 0x5c5c626b777f8f89U,
  0x8793a4b0b1af9b78U, 0x93938279787f7a7eU, 0x7b9b858d8d6d7494U, 0xbab9a4866a5e6d7bU,
  0x868c8f9da2aab6c4U, 0x898069929c9d968dU, 0x69667080809a9096U, 0xb1a9babdbeaaa487U,
  0xada8b9ab8f8e99a5U, 0x7b85929676645e8bU, 0xa9a7a3896d666d85U, 0x998995a4bfaca4a8U,
  0x7d50556b8bb0b9b3U, 0x7d6b717d9990969dU, 0xb3b6a295a0a4a090U, 0x7194a9a3957f92a8U,
  0x8f9c979a7a5c5f5aU, 0x9a9a9c9a897e7082U, 0x82819099abbba797U, 0x86685f63849ba794U,
  0x8680877d868b9396U, 0xacafa49ea0949594U, 0x809ea396827f8596U, 0x90868d92855a505fU,
  0xa4a79a93827b8582U, 0x8b897f87a5b4a8a1U, 0x776f5a70788795a1U, 0x88847f8990849085U,
  0x8daaa9a8a4a19e8bU, 0x63647e9c8f8f867eU, 0x7b8b869c869e725fU, 0xa5a49485857f7a72U,
  0x90887f7b8093a0abU, 0x9590805b575c778dU, 0x86817e6176859294U, 0x8c8d99aa9da18f89U,
  0x686872828e868680U, 0x7a88969b9696766fU, 0xa2979c8f8b858576U, 0x8b89867f899ba9aaU,
  0x8f848495726f7786U, 0x8b859287888b979bU, 0x97a4adaa948e8d8bU, 0x9c796b788c8f8e8dU,
  0x828494959281abaaU, 0x99938e95848c9980U, 0x858890969ca9aba9U, 0x94809a858e816973U,
  0x8486937976869392U, 0x9d949b9699888e89U, 0xa29d807d8b8b778bU, 0xb092969292848687U,
  0x9a95867d847e879dU, 0x94a18b7b85948e8fU, 0x9586848daa8e8493U, 0xa1aba4a49a939392U,
  0x87969cb69b909ea3U, 0x9a8682879596938cU, 0x949493939595969aU, 0x957e928686808f90U,
  0x93a1a09ea3a78d99U, 0x93969394978e8b8fU, 0x9495939394949494U, 0x969a999494949493U,
  0x9493949494949394U, 0x9494959494939494U, 0x9b928e9695949493U, 0x949da3ada29c8e96U,
  0x9493959393939494U, 0xa2a1908995959393U, 0xc0bab3b9ad9ea2a9U, 0x9784737379a4a7c5U,
  0xa0a093959395a1a0U, 0x94929b898e948c8eU, 0x827d92a29a9ba2a2U, 0x958f9e96887f7776U,
  0x969a8589889c9493U, 0x9ea09e9d94969b96U, 0x928d8b8f8d898f97U, 0x97a2959482818f86U,
  0x9997979496969595U, 0x868889949ea09293U, 0x847b7a9392939585U, 0x948b7e868b869395U,
  0x9ba095979c9d9a8eU, 0x9097938d9099959bU, 0x7b8694958f846190U, 0xa09c99958c7b7973U,
  0x9ea0a1a39ea5a19cU, 0x8992657d8f9c9596U, 0x8d8b888278879b93U, 0xaba38b8fa1a3a194U,
  0x8b9a8b8fa09daaa5U, 0x818b9b938f926577U, 0x8c9da19396939086U, 0x899ca0aba989737eU,
  0x908b777e868e8079U, 0x9090909085a39c93U, 0xac7e5e6373869795U, 0x767b79737b8ba0aaU,
  0x8da19c939e858b6dU, 0x666b878982868795U, 0x78858e9ea37a5c5aU, 0x977e887d5c68696dU,
  0x76738493909a9394U, 0x948162625c5f6d73U, 0x7870686274898c94U, 0x9ea394a4939ea994U,
  0x73705b4b505a7881U, 0x78939494898d8673U, 0x9ca9ab9e8c868671U, 0x55546179a3a59393U,
  0x8c8e84858d8e7d54U, 0x8578766f7e949395U, 0x96a79394a3b09392U, 0x9aa5a59263525b6cU,
  0x57668b9792909388U, 0xaaaf8c8f816a6c57U, 0x877d6f7484a59694U, 0x909ba7979ba7af9aU,
  0x8b88855f50455f82U, 0x93969b94aabd9b92U, 0xa5a8a2999397898bU, 0x725d536585a7b2a8U,
  0xafc7c1ac9ea39485U, 0xa28e93a2a98d9b94U, 0x6c96b8b9aaa9aca5U, 0xbbb9b2a59b8b7a61U,
  0xa8959c9aa7bdcdb2U, 0xb8acada4a79388aaU, 0xa49b9579688cbdbfU, 0xa8bfd6b6b4afb3adU,
  0x9a978ba1b6939493U, 0x7386acbdb8aba5a7U, 0xb7b0aba4a1a19d8bU, 0xa88f969aa0b8c8bfU,
  0xa0aba59e9994ac9eU, 0xac9d9686848f99a2U, 0x93b9aac6beb2afadU, 0x9297b69b9690929bU,
  0x8097948d8d969695U, 0x99a5afaba99c8879U, 0x7e929394958c8ea0U, 0x998f8c818f959d82U,
  0x948978777a8fa09cU, 0x949c8b9688999596U, 0x8f999e9780879394U, 0x7b94958e8f878c85U,
  0x8c96868087846f66U, 0xa793949494a9a9b2U, 0x9b8e9b9caa9999b1U, 0x656f6d6f7f868693U,
  0x93a4a2a38c97937fU, 0xb39a969694959493U, 0x7e8fa2a4a2a0b4beU, 0x94958f82887a7971U,
  0x9493959495939b94U, 0xb9aca1a19e999697U, 0x949294959ea0a5b6U, 0x9494949495939393U,
  0x9494949494949494U, 0x928d9b9b94949494U, 0x9494949494949494U, 0x9494949494949494U,
  0xb2b2b1a7a8a79e97U, 0xa8afa192a3a3bbbaU, 0x94949494a8a8a9adU, 0xb6aca7a3a2979494U,
  0xa7a59da1a097899aU, 0xa5b9acabb4b0b0abU, 0xa78894949494898dU, 0x8b92878ca5aa9ea4U,
  0xb9baa79a9a9a9986U, 0x94a38b9babadb8baU, 0x8f8d868796849294U, 0x99938c8d93938481U,
  0xc1abb4b0abaca49cU, 0x8e93949494ada7b8U, 0x90968f8e8b878576U, 0xababa4978d8c898dU,
  0x94abb3c4c1b7b7b3U, 0x8f8687777a8e9494U, 0xaba396958f939299U, 0xb4abb3c0bebab6b1U,
  0x768c8694a0a9bbc6U, 0x9aa09c97948e8676U, 0xadabadb1b1aba0a0U, 0x96a5af93898c97aaU,
  0x8d94888288949694U, 0x868e959da0969799U, 0x555050574f626b76U, 0xa08e97948fa07f5fU,
  0x9c9695958f8c878cU, 0x61d2b415a6a788eU, 0x898d805034251b13U, 0x8f898c9587889a94U,
  0x73727a8894969c9cU, 0x4037474c4f5a6276U, 0x879a95948885785dU, 0x939b9a9e9c99939eU,
  0x9ea5a09e9a959590U, 0xa38782898c858f9aU, 0xa0a599a59da19094U, 0x9c979592969799a4U,
  0x9796a0aaa9b0a49dU, 0xa09b908b9a8f7d8dU, 0x949b9a9ba29c959eU, 0xa4a09a9799939092U,
  0x8571768c96979da5U, 0x979a909b8f9a929bU, 0x9a958f929da39c9dU, 0x97a0a3a89da0999eU,
  0x848b8f9b806c798bU, 0x9b9994979396908dU, 0x9b9d9e9c9a95949bU, 0x887b959a9599a3a3U,
  0x8e8888828d8b8f94U, 0x979695959c908f99U, 0x8f969aa199949c96U, 0xa0858e948673929dU,
  0x978f949d8f928b80U, 0x959b9b948e8f928eU, 0x7f80829a9390959cU, 0x949695939d818d94U,
  0x9697969694979da0U, 0x908e92948f949b95U, 0xa7999b94847a8094U, 0x9b999b9c9392959cU,
  0x909393959a99999eU, 0x8d8093a99b958f8cU, 0x928e9aa2a59a8994U, 0x9d9d9d938e949a97U,
  0xa49b8e8f94929494U, 0x978486939a74aaa3U, 0x93929296938f9a9bU, 0x90959a9da1a2a1a1U,
  0x94939ea19ea09b99U, 0x8b858f9489899493U, 0x9a99969990939093U, 0x99968b908c8c9596U,
  0x8595949494a29992U, 0x8b999493828b9089U, 0x8d868b8f928e888dU, 0x94a1959297948994U,
  0x88999d9297909494U, 0x9ea0a0968d929589U, 0x959d909c9b948e92U, 0xa092949494927d84U,
  0x9596aca1a09e8d8bU, 0xc1b3a7aabec0c2b8U, 0x949292a0a3a29aa4U, 0xa294949494949494U,
  0xbbcecdc1ada0b2b1U, 0xa7b3afb1bbc1c2b4U, 0x949494949494949bU, 0x908f8f9494949494U,
  0x9c9d9c9c93959d93U, 0x949494949497979aU, 0x9494949494949494U, 0x9493939394959594U,
  0x9595959494949494U, 0x9494959594949394U, 0x85888c9494949494U, 0x8b8b7f7b7d877f82U,
  0x9493949585808277U, 0x8b8e959494949494U, 0x76747474847d808bU, 0x7a7974726a7d8268U,
  0x9da294949495908cU, 0x5d687d7a818d8b94U, 0x74786b5a49565a5aU, 0x9487898494927d69U,
  0x7d89809da3a29594U, 0x777368625b536679U, 0xa2acac9ba18c8086U, 0x97a595958c88777aU,
  0x7e7f9293929e9e80U, 0x887e7d828f85797bU, 0x8f847b8da1ada38bU, 0x9b9d9986908c8d93U,
  0x9796908f8c889096U, 0x95a19e938b8b999cU, 0x9c9286957d8b7b84U, 0x8f8f95898f898486U,
  0x9993a1a295999c97U, 0x80877e8b97959aa0U, 0x9288828d94958e85U, 0x9b94959a9a9ea79eU,
  0x8b93929492979b95U, 0x80869e9e81798780U, 0x9d9ea19c90888287U, 0x8e9b9da1a08d9096U,
  0x9b85777d848f8c8dU, 0x78787e847a89949dU, 0xa78c7b89979c9b92U, 0x7d8d8e8f9099a2acU,
  0x9aa5889ca1777f86U, 0x9caaa4a08678738cU, 0x96a3adb6b6967784U, 0x96766a7b77858f94U,
  0x9d89718eafb4959aU, 0xc1a37b779ba7aaaaU, 0x81859596a2b0b0beU, 0xb1a99c97a97a7a78U,
  0x8da1a4a4ad9b8092U, 0xa3b1b6bbc5b28971U, 0x9e7d86777986969dU, 0xa5968bb1afa89d95U,
  0xbab69d8b848b979dU, 0x80888f95a2acb4b9U, 0x908e95979479877aU, 0x8e8e929c93827aa9U,
  0x86a1b3b3b3b6a796U, 0x94897d7e8f99968eU, 0x8b7e869580879a9aU, 0xacb8b2a18f8c9596U,
  0x7684908b7a85a2adU, 0x7f869a948d797871U, 0x8e86878778708188U, 0x6d7382929cadac99U,
  0x87948d7f7b828885U, 0x725a697280869a9dU, 0x899ca0928b7f7f78U, 0x6d707b7f61576f79U,
  0x8788979b9da78268U, 0x88817a7672625c77U, 0x523d657a7f92948dU, 0xa0978b626b737870U,
  0x79706b7f6b849693U, 0x868f8d8b82848480U, 0x808d8e6b4f3a6281U, 0x7a819a9b9997907aU,
  0x808f928d847f8d87U, 0x5b4e698090908784U, 0x9484a8928e8e9273U, 0x949aa89084849a9aU,
  0x9396908787999799U, 0x9b8e846b6253738eU, 0x777f949394949c9cU, 0x969a9695a1a4a185U,
  0x5c567a999a93999aU, 0x95a39ca19497825dU, 0x9da8ac927e879494U, 0x97887f808b8b8b99U,
  0x948b886c5d697f8dU, 0xa28e949494929590U, 0x79899ca09c9cabb2U, 0x7381939c979a897eU,
  0x9488939695858278U, 0xb0b4a5ada1949493U, 0xa9a28f8c8fa4acb1U, 0x998e8d808da7b2baU,
  0x9494949495959b95U, 0x95a4b9bab9b2a09bU, 0xa0a7b6b1bdd2ab96U, 0x9394959493a4a5a4U,
  0x9494949494949494U, 0x9494949494949494U, 0x9494939494949594U, 0x9494949494949594U,
  0x9c9394949b949493U, 0xa4a49e9aa797959dU, 0x9494949495959ea8U, 0x9b9e95a099949494U,
  0x88828186848b8996U, 0xa2ac9da0a99da394U, 0xa18d949494949093U, 0x7f847d788e93a5a1U,
  0xa8a08e7d7e80777dU, 0x94a3939ca38f94a9U, 0x8c93a58f908b9494U, 0x928584797a7d7677U,
  0xb2a0a09b998d888cU, 0xa8a19494a1b395a0U, 0x7e8b84707b8294a0U, 0xa7999c97928d877fU,
  0x9dad9cb3b4a9a7acU, 0x717687b2a1a9a394U, 0x938c877f787d7e76U, 0xba9e949da0999594U,
  0x9aa99b94a8aab0beU, 0x8178796b6a707a95U, 0x979b9c999c948687U, 0xb0acb0b4b6968f99U,
  0x7f8d8f96998b8099U, 0x9ea08e8782868071U, 0xa39d9e9b99969d9eU, 0x88869589a7a2b1baU,
  0x858881788187888cU, 0x95949e9e9da19586U, 0x8999bec2a9979999U, 0x7e7e7a7782859e8bU,
  0xaab3a4948282807aU, 0xb0998c928e8f9ca0U, 0x76829d8c88a3acbdU, 0x8479798181817f74U,
  0x858e9796a9c6bf9eU, 0x94aca0aba4847d7aU, 0x827f7e8079789694U, 0xa7c7cbb194898582U,
  0x8e766b707a8f9b8fU, 0x857f9ea392998986U, 0x9c97999385807f84U, 0x8192958896b2b9b7U,
  0x90877d6881766f72U, 0x7f8087769589a1a1U, 0x869dacaa9d959d9dU, 0x6d828887898c8b7fU,
  0x7d9c9d9790807e69U, 0x8f86959584878e8dU, 0x999b897e7b8f9ca2U, 0x8f807d6b5e727e93U,
  0x848c9e99859aa189U, 0x82868e8e8c7d7e88U, 0x615f6693a8a89585U, 0x8b8fa294977a7979U,
  0x8d857f879096a09eU, 0xafb3a99a88808289U, 0xa3857d705c4f5b88U, 0x9ca1a3a18f9ba488U,
  0x9d8b889297929096U, 0x63544d699db8b6acU, 0x9ca7889ba28b9077U, 0x9d9d9ea39ea4a7a3U,
  0x7eb1b2aca4999395U, 0xa39aa2a37957424fU, 0x9ea4a3a097949e94U, 0xa39d9c9ba0a4a3a3U,
  0x846d45385492b3a8U, 0x948e8796a0979e9bU, 0xa1a0999ba0a1978fU, 0x3f6c9ba7a4a09ea0U,
  0x94a09c9986726550U, 0x979c8e8992a49997U, 0xb1a9ada7a39a9590U, 0x8c8b7a5a464f739cU,
  0x8fad949494a19085U, 0xa5a0a09c9c94968bU, 0x65535273a0a5a7a9U, 0x94a7958f8b8c867aU,
  0x878c8f88b6a49494U, 0x6f858e948792a08eU, 0x858b948d806d5757U, 0x9e9e9394948d8c86U,
  0x737e8b7f7b786d7aU, 0x9581745f5856647bU, 0x949494868485848fU, 0x7d6c7e858c949494U,
  0x877a686b7a747474U, 0x8d8d979694887d8fU, 0x9494949494949494U, 0x6d777a7e848b8f93U,
  0x979b939d9e877e78U, 0x9493949494959494U, 0x9593939493949393U, 0x96a1848495959494U,
  0x9595949593939493U, 0x9594959595939593U, 0x79777d8086868f94U, 0x78717b8e8b9c7f73U,
  0x9494959585847d70U, 0x8481858889929594U, 0x95928e90979c9c85U, 0x8e616c6871798c95U,
  0x809394949494a4a2U, 0xa18f90947f939487U, 0x90949c908e96908fU, 0x958e9c876670858bU,
  0x92938d90af9e9794U, 0x8e8d8b979e888784U, 0x6488859094a5a097U, 0xab9295938d929281U,
  0x9c9ca1a8a9a096a4U, 0x8f9493999295959cU, 0x908b887179888793U, 0xadb4bfbab6a7a495U,
  0x8e979da1a5b0b7b3U, 0x84929c9c96898885U, 0xd2b8b39382827f7fU, 0xb0b1b3b2b6b8bebeU,
  0xa1958d82889baaaaU, 0x807d81808f9ea1a4U, 0xaca2a0b0bdabb396U, 0x92a1abb2b3ada7a4U,
  0x96a29da8a3a29a90U, 0xa1a9aa95947d8d81U, 0x8e8c8d8f938e8d8cU, 0xa09d9c9c90928b96U,
  0x8b7f8d8693a099a1U, 0x636973768da7a096U, 0x937a715d5d575e63U, 0x848d9496979c9699U,
  0x81939e969b909b7aU, 0x65533f39343a475eU, 0x9290939593897a74U, 0x868ca88776818288U,
  0x3126375577909a93U, 0x8d8c9ba7947d5f4bU, 0x788b818087898c99U, 0x7f958f8f9ba7b29aU,
  0xb0a0937b68464b58U, 0x878d8e8f8b8d9db1U, 0xadc8c8bd948d968dU, 0x9d8880878fa09e95U,
  0x939396a8b0acafa9U, 0xaa939a9e9a9b9d92U, 0x9dad9d96abc5c8c0U, 0xa0a8b3b6b3b9b6a9U,
  0xa4a2a397a09999a0U, 0xa7b4a1b9af9eaba5U, 0xbababfb9aaaca195U, 0xa397a0a29595a9b8U,
  0xada3b0a8aaa5a59eU, 0xb7aaa594a1c49eacU, 0x8d8695a2a8aab2c1U, 0x9d9ea29e9d969795U,
  0xa0c6ab9cb0a9a597U, 0x979ba9b6cfabaca1U, 0x908e9494847e888fU, 0xa0a2a194929c9e9bU,
  0xbe949c93a9c2ab97U, 0x8d868b8c8e8fa9b3U, 0x8692978e908f8e90U, 0x9bb7a096a09da396U,
  0x8b8e9da4bf9a9794U, 0x8e8e908d8e808487U, 0x958d909386888986U, 0xaab8ac9393b8a39dU,
  0x88857f858589808fU, 0x8d8889878b8d9290U, 0x95a297858989868dU, 0x8f848195acb3a294U,
  0x928f979090878189U, 0x868b82878f8b8c96U, 0xb2b2949494897f7dU, 0x9b9493909c9497abU,
  0x858b88929b9c9d95U, 0x938e847d868d8684U, 0xa3a1a0bfb2a99493U, 0x96a09c99a3a1a3a1U,
  0x88928e818088929bU, 0x978c9394938b9a97U, 0xa0a5a5a9ada09db7U, 0x73818e9a96a19ea0U,
  0x949493868f84746fU, 0x8c7b7d9294949394U, 0x9687949399a29793U, 0x9b9c908c969aa3a5U,
  0x9494939495949596U, 0x958d898786869594U, 0x96999ea3a595a095U, 0x9594959493949395U,
  0x9594949594959495U, 0x9494949493949494U, 0x9594949494939493U, 0x9594939494959495U,
  0x7b85767b81828e94U, 0x878681817a727a80U, 0x95939495908d8b87U, 0x7b828b8989959393U,
  0x4f565062616c6970U, 0x828c816d635b7d64U, 0x8993949593949487U, 0x6a7b77617186888fU,
  0x94848276655f5666U, 0x95957e787e949d99U, 0x70667a879e899493U, 0x867f858e89868779U,
  0x999daaa0947b8588U, 0x958894939397a4b0U, 0x858b8c8582798582U, 0x9c90868799948f8bU,
  0x9aa4a0a5a4a7a3a5U, 0x939294908e878e95U, 0x9a9a938b85868693U, 0xa09a9aa5a39a9095U,
  0xa08f97949aacb1a2U, 0x8c8e8e8c969a9690U, 0x99908f8e8f909090U, 0xa1b3b6968e95a3a7U,
  0x929d9c96999eb084U, 0x85949b9596939697U, 0x85909d99868b8680U, 0x8d8fb39c99a0a59dU,
  0xa2979a9b90969c93U, 0x858987868d94a2a4U, 0x89959b8e858e9992U, 0x969395888292c59dU,
  0x92959d9e9d9ba09bU, 0x768d9792928b8c90U, 0x97ac90a29081a176U, 0x9da2a0a8a49e9794U,
  0x94959b9e9c9a9ba0U, 0x9380775d738e9395U, 0xaf9e96a7a5c4b0a0U, 0xa1959499979ba1b7U,
  0x798e8f94969aa0a1U, 0xa4ba9da1908b7063U, 0x8b9599a7aca2a7b2U, 0x929aad9e95948685U,
  0x8c857a646d8c999bU, 0xa3a7acbdafbf9690U, 0x89827d747b949aa3U, 0x7d8e969da0a3b0a2U,
  0xb69d8d968e847a7bU, 0x84959aa9a3b0a7afU, 0x9da4b2a8937a7274U, 0x908c7d828f949092U,
  0xb7ad9da0a08c8e9cU, 0xb1907274808d9ab0U, 0x8c9293979ea5b1b2U, 0x94938e9486746f88U,
  0x7d939ea9b0a79a9bU, 0x99a7a5b6ccaa7068U, 0x86846f848784828fU, 0xa29e9694969e959dU,
  0xc8c17b5b72859294U, 0x80737388929495a5U, 0xa0a2a1939a9b747bU, 0x62666c7f90968d8dU,
  0x8e8e8b9cc7c9844fU, 0x9b97848276586579U, 0x7188868492a39395U, 0xb8c0895447485065U,
  0x72686c798e93a7a5U, 0x859792939392a099U, 0x5c5b657278847e81U, 0x979aa8abadb19a77U,
  0x9481a1a7867a9493U, 0x79747d9087848d94U, 0xaaafa08c79777880U, 0x90879eafa8a5abacU,
  0x868593939482a4a8U, 0x7873685e615a6f85U, 0xaca2a9afa7a7928fU, 0x958f9b959496ababU,
  0x5652657d88929494U, 0x9689868486796b62U, 0x9d99a5aca5a39d96U, 0x94979493948b908cU,
  0x85807f695f66717fU, 0x899589899997847fU, 0x948b96959e99a596U, 0x8785829795949494U,
  0xaaaf9c8f929db39cU, 0xa1a5a99796928c8cU, 0x949494949394949eU, 0x9ba8b69e93959b94U,
  0xacc0d2bbafbec69bU, 0x94959394a5aaaaa5U, 0x9595939595949393U, 0x9495959494959595U,
  0x9494949595949493U, 0x9395959495949494U, 0x9697959496939495U, 0xa8ab8485a4aa9b9dU,
  0x9393959487868ba8U, 0x9489998687949394U, 0xa8999e937f797a87U, 0x84949da9b09aa2acU,
  0x879e95959493827fU, 0x7877827e97959687U, 0x87817d7d89898486U, 0x948f8d8094a29488U,
  0x6d7f7f8c87949495U, 0x888c86786d667369U, 0xb69e9a8886898f86U, 0x958e959390a79ca3U,
  0x826b656272798787U, 0x9b8e90868f999292U, 0x93a99ea9a4a5a4a3U, 0x5e6b82949e938694U,
  0x8b948c938f816654U, 0xb4a7a7a49c847978U, 0x92927a949abdc7adU, 0xa2907048586f7b9cU,
  0x978b8276818c97a3U, 0xa2c0b6a7b7a7a89dU, 0x6487849b9a907d93U, 0x8095afb8b68f6d4dU,
  0xa29ca59d97908277U, 0x8489858db3dbdbcbU, 0xb697775263818099U, 0x928e7a747e9ab1b6U,
  0x87a3e9cca29da599U, 0x5e70818279848f8bU, 0x89a2b2b9b0a37a61U, 0xaaa19c8e88827974U,
  0x7795948d899dbec2U, 0xaaa0806f6d7d8c85U, 0x7e7f7a8795a8b1b7U, 0x95a4adc1b89a8f80U,
  0x81868f978d7d9393U, 0xa4adb7baaa94867dU, 0xa38e9789747f8993U, 0x978493a584847a9aU,
  0xa89496877a7e998fU, 0x86828f97b1b0a9b1U, 0x866d6a6c797b8990U, 0x807d9099a88994a3U,
  0xabb7a799979b9692U, 0x65637b908c828b95U, 0xa3a293a2857e7e70U, 0x8f908f8c7e898c95U,
  0x898b87869cbaaf9dU, 0x92787a72706b7788U, 0x6b809381a1949094U, 0x94afb09b8f858677U,
  0x696a888782828079U, 0x8d878c958e7a6a64U, 0x9b9e9689808d8e85U, 0x8488827d90a8a4a0U,
  0x80886d5f66698d95U, 0x939380897d878e82U, 0x869da4a29d979a94U, 0x5e567e968d8b8b81U,
  0x7682879d94a38866U, 0x9a97959390877773U, 0x928d85868689969cU, 0xa7a39371624d7392U,
  0x8d8678656b828f95U, 0x898489999a9b9399U, 0x695469929a8e8d86U, 0x6b84909aa1a48077U,
  0x9d9d9d968d8d7e6dU, 0x9293907f80858d95U, 0x9595828873666987U, 0x868988818c8b9799U,
  0x8c94a1a19e9a9289U, 0x957a6d808b8e9390U, 0x868c949493a79599U, 0xa39b9990848d938eU,
  0x8582909d9ba4a5acU, 0x95a09c84807d7986U, 0x80777f7b868f9495U, 0xa1a19a9b9a969e8dU,
  0x93a1a8a793808097U, 0x9693939595979e84U, 0x8c90887270665874U, 0x8484695e747e7b78U,
  0x9593949294938b86U, 0x63656d7e8e949493U, 0x726d76807e7a857dU, 0x9494878471788984U,
  0x9495939394949696U, 0x92818887898b9292U, 0x94909394927d8c94U, 0x9494949495959393U,
  0x9593939495969594U, 0x96968c8d96959492U, 0x9696969592959293U, 0x9395969694929395U,
  0x7d807d8280819593U, 0x858788817d727280U, 0x93939393807a8b7eU, 0x7d878f8c96949695U,
  0x50424c4e6d706379U, 0x6d6c718b9d7e6258U, 0x959594939296847dU, 0x646b71738087868fU,
  0x93896d616d766f71U, 0x9580766d6f928d87U, 0x9588848b869d8e92U, 0x6b7385949c979d8eU,
  0x898f9da0a39c7f70U, 0x8092949684958987U, 0x999da09084788279U, 0x9b9b937762687895U,
  0x8f909a93959ca2a1U, 0x8d81927170a88b93U, 0x646b7a878c8f9c97U, 0xb19d969a9c8f8b78U,
  0x719d779595b8b1b7U, 0x8b949ba493889c74U, 0xa5a29e907a6f737dU, 0x96bfb6abbeb7afa3U,
  0x9e93977a7e9c7796U, 0x8c71707e8f96aaa0U, 0xb1b0bab7adabaa9dU, 0x7a8d8b92a8c8d2b9U,
  0x9ca1aca2978e847dU, 0xa1a7a49b80626979U, 0xb0c5c7ab979ea9a2U, 0xa7938295707e8d95U,
  0x71484f819dabb6acU, 0x767a7773817b7f7bU, 0x6d787f94a8c0a888U, 0xabb2b2aba8ab9d8bU,
  0x706c6a7a76616295U, 0x86b492766c6c6866U, 0xb1b7a0847b817f93U, 0x9287a0b9bfb7a3a3U,
  0x8686948888828194U, 0x7e8293957e8d8887U, 0xc5bbaaaab9b2aa86U, 0x9c97999ca19baac0U,
  0x907e7b859da8a9a4U, 0xb2b1af967f7b9ca2U, 0x9ea3acb9b8b0aaadU, 0x97979e999c999e9bU,
  0x8fa395a28c797390U, 0xaaada9a2a2a08d8fU, 0x8d8e959993a1b1beU, 0x866f6c8792877f7bU,
  0x81856c68868c9593U, 0x949ea4b0938f8f8cU, 0x8e8f82797f8f999bU, 0x87809d93866b898cU,
  0x998f8c786b797378U, 0x79949da28e909da3U, 0x88727994878c8c80U, 0x637f88848c7e808cU,
  0x7f869aa29d8f7f78U, 0x8b85848986899392U, 0x807b85a1947487a1U, 0x9c928e87768c8880U,
  0x929a8f88888b928cU, 0x97768baf9a8b898dU, 0x9092876b72828b94U, 0x8e878995a19d9c9eU,
  0xa1a1928b8ea19790U, 0x8c7b909b9d72958eU, 0x97979ea79c92948eU, 0x8b9d9b8d8f8f8c95U,
  0x939a999ba5aba196U, 0x968e9b9e8979979cU, 0x8e8f9292979aa39cU, 0xa59c9b999c9c9d90U,
  0x8788939496a49093U, 0xa8ada5a18e92a2a2U, 0x979b9da3999a96a0U, 0x93a79394a7a09a9bU,
  0x817e8284968d9395U, 0x9da19ca1a19d9b87U, 0x99a19ca3a4ac9d9dU, 0x9d9c929595877986U,
  0x8c84746b64635f6dU, 0x738d95909699a288U, 0x958882aab0a99677U, 0x6b6c768296949393U,
  0x787a86948c747077U, 0x8d7f82705f5f6f72U, 0x959495949492928bU, 0xac8f898589899396U,
  0x887a788e8f7a8da7U, 0x939292949680807eU, 0x9293929293949095U, 0x96938f9293959692U,
  0x9296939592969492U, 0x9395929295969294U, 0xab9eafa9a7959495U, 0xb0a9978dafa8a8adU,
  0x96939695a9a9acafU, 0x968c8fa39b939396U, 0x88898499938b94abU, 0xb9b4b8a98c81808bU,
  0xa3aa9393969393a0U, 0x969b95999d9c9d8eU, 0x9c9d9ba5a3a2868bU, 0x9589938786777790U,
  0x8897a29da9b19a93U, 0xc0b8aa9c9a8b818fU, 0x69807b8d9e9ba3b4U, 0xa3b0959299a28262U,
  0x948d88747a9399a4U, 0x999395a0a4a7a19cU, 0x817f78736f848c95U, 0x8e8282a0aa7f9d95U,
  0x998c7e7281868b8dU, 0x768c9ca5a9bdb6b0U, 0x947aa795887a7a71U, 0x53647b8695818596U,
  0xbfc6cbc2b19a7b69U, 0x807d7273878d96aaU, 0x8c8d8585847d95a1U, 0xb29d8477696c6d81U,
  0x84a4a5adc0bdbdc4U, 0x8b8897968b936c76U, 0x7b897d777e898284U, 0xbfa8a2acab8d7f84U,
  0x9282798596aaafbdU, 0x8d817a8e86939b97U, 0xb29b7a84998e8c84U, 0xb4bab2c1ada795a5U,
  0x939cac96a35d537dU, 0x9da0969da5927f9cU, 0xb4ac9b96b3b3827aU, 0xab7a628ebfccc5cbU,
  0x9ba9a5b9a0999c95U, 0xabb478658c9b9b8dU, 0xcec8bdb6b8b7aba1U, 0xa097a8a8b0866f97U,
  0x768690928fa7abc7U, 0xa8a9a19ca5b08968U, 0xa782718eacb3b2a3U, 0x879ba4a88f949e8eU,
  0xa0a89a807687928eU, 0xa2b2baa093999692U, 0x7a95a2909493689aU, 0x7a848c908d95b6a3U,
  0x9385898582929a87U, 0x9090669da8a2999cU, 0x97a1b9ab89b9a39cU, 0x73768c8887979b99U,
  0x929077888688848bU, 0x9599ab948f93697aU, 0x8f969ba0a0939b94U, 0xa18d888e81818f99U,
  0x94a07b7881897d8dU, 0x99909286929ea7a7U, 0x8e8b8d8292a1a7a5U, 0x6f84888c999b9589U,
  0x8987ac9ca8a8a176U, 0x86999c998d969586U, 0x9c9a9b89898e928fU, 0xaba4a8946a6b7d89U,
  0x909692898480ab95U, 0x8b959a9b8f9c9592U, 0x6a5c5a6c8496928bU, 0x8690a29d96a4a98fU,
  0x90a29790979d928dU, 0x6b928f8e89929695U, 0x97a5a98d735f5f56U, 0x95a9a4888294a79dU,
  0xa0b0a9a09e9da495U, 0x85786140466a8588U, 0x89b6929397b79d7eU, 0xa7939d9ea293a281U,
  0x4e4b6d7d9ba8b8abU, 0x92ac8f8c99a57e61U, 0x97a0b2a5af939495U, 0x868ba4a38e9d939eU,
  0xa7ada98b725a777dU, 0x81a794959493868dU, 0x9094aabdab9e9d84U, 0x85727fa990a3a7a5U,
  0x9593958297a7a5a4U, 0xb99c8e8ba3959294U, 0xbfd9c5afaab0b3a7U, 0x97b0b8b29ea9a5bfU,
  0x959394949394928eU, 0xa5a8a4a5a3a0868cU, 0x97a7a4a099b486a5U, 0x9396949593949296U,
  0x9393959393959593U, 0x9495959594939495U, 0x9593939595949494U, 0x9395949394959395U,
  0x9594949395949594U, 0x9493949495939393U, 0x9393949493939493U, 0x9495959493959495U,
  0xada58e939b938293U, 0x939996a9a7a4a0a2U, 0x9495939495959394U, 0x867e81818c96a79bU,
  0x93908d999da3a396U, 0x9493788479848e97U, 0xa3a7a0a9aaa09b94U, 0xaca4a7a1a5a49da0U,
  0x8b9595808f968b99U, 0xa2a4959395a4a892U, 0xa29d9c9695a5a5a5U, 0x8f8b8e9a9c9ea09eU,
  0x868da894a09a878fU, 0x8b9293a28d82a195U, 0x99a0a1969d959290U, 0x9795949e9499949bU,
  0x7f85ad94a7a8bd99U, 0x9a9089908f8f9297U, 0x9394959b9eada19cU, 0xa4accb9a9394969cU,
  0x888e96958b8b9795U, 0xa1a29e9692949289U, 0x8c97968e8f979093U, 0x9d84998ea2a8a896U,
  0x8c8f9394939689a1U, 0x81847d7a93a0a18eU, 0xabada5a290969087U, 0x92898295ad81978eU,
  0x88a2a2958c8b8b9aU, 0x888487857e898774U, 0x997b8b8ea4bea8a0U, 0x958b86909a938b8eU,
  0x8d97968d92a3a29eU, 0xa0ada49486818d90U, 0x9c948b8b87858d93U, 0x93a8a5a0a4a09390U,
  0x7a8890958b95928bU, 0x7984889ea0a18169U, 0x9e9d9b9695999b8cU, 0x8d8f909093a7a2a1U,
  0x8f93777f8b8b8c88U, 0x99998f86778995a3U, 0xa3aca09c959da3a2U, 0x9a8f8d87868f8f92U,
  0x81aa9da28e8b719bU, 0xacafa18879827a66U, 0x8d908c8e96a3a5a8U, 0x8f997aa7a499998eU,
  0x47455b5b8eab9e94U, 0x8da0a9aba4947655U, 0x9d9c928e8e9a8989U, 0xa5a29d958d7382a9U,
  0x482d1f25393a5265U, 0x96958d8289897762U, 0x8c778d9da0959495U, 0x4d5b5f86b8b19d94U,
  0x92844d17030e1c3dU, 0x9a9ba49b9c979793U, 0xbeb0879392829495U, 0x4c5c72817e81829bU,
  0x969a9ea09a906d4cU, 0x92829994a499a19eU, 0xa39d9ba3be9eb493U, 0x9ba39d9aa3a5adadU,
  0xa1a19b9b9ba1a49cU, 0xab90b7959e898c94U, 0xb3b3afb1aba7a5b6U, 0x9a9b93979ca2aab4U,
  0x938b80899b94979aU, 0x9c99adbaac93a293U, 0x9a9ba1a9afafa2a0U, 0x9695929ea0979092U,
  0xb7b9949494937d70U, 0xa5aba19d9a9dadc1U, 0x8f9697969b9d9b9cU, 0x95a77e787d7e8189U,
  0xa8afafb3a2949595U, 0x8f9a9d9da0afada4U, 0x8b8f967b768da08eU, 0x9aa3939494a29972U,
  0xabb2b7b4b7b7bfabU, 0x928f93939396a2acU, 0x9594a38d979c9a97U, 0x90a2a8a599949493U,
  0xa4afa490979b9987U, 0xa5a2a2b0a4adb1abU, 0x9594939493949493U, 0xa09d8c8682888d93U,
  0x8b8b8692a1a98e92U, 0x93949395938b8b7eU, 0x9494949493959395U, 0x9595a0a094939394U,
  0x9493959594939594U, 0x9494949493959495U, 0xa3baacaba7a49695U, 0xb1c0a296969aa79aU,
  0x93949593a5a3a8b4U, 0xc1aca19a93979595U, 0xbae7d9e9dcd9c8ccU, 0xa3a9a7a09a93a1afU,
  0x949e9594949595a1U, 0xcbc5c0c7debdb792U, 0xaaa0adadb6c0b6bfU, 0x93948c979390949bU,
  0xb6c5c1b8a09e9a94U, 0x9b9ea0a5a5b9b7b3U, 0x929699a8ada7a29eU, 0xa4af93939e7f7b7eU,
  0x9ba8a4a3a0a5a3b4U, 0xa2a49c94887e7b8fU, 0xa19c889eafa4a19cU, 0x9aa0b3b79ea5a395U,
  0x7162687482829092U, 0x9697968e8f8f8780U, 0xaa9da894a0938d95U, 0x877f82878f8daab7U,
  0x9693907b6c696877U, 0xa18f7e848690898cU, 0x84879cb1b0ac9ca4U, 0x736470768182817eU,
  0x797f858d9297a28fU, 0x9da9969490807466U, 0x7978747e7d728c9cU, 0x8e95a4ad865e6978U,
  0x7e7265647078888fU, 0x796f81879b9c9794U, 0x9768656f787b7d7eU, 0x647a888d8f96aaafU,
  0x8c859a958e7f7966U, 0x808585887e7a8178U, 0x8e929ca79a857e7eU, 0x8b7d817072807a86U,
  0x938e846f82888d93U, 0x8d8ca3aba39b9295U, 0x88958884868e97a0U, 0x90848d9385869ea3U,
  0xb2aaa1a19da49079U, 0x9090999b8e8199acU, 0x9397a9bab19d9b8eU, 0xaaaaa4929e809494U,
  0x999099acafaab0aaU, 0xafa9a09ca199a0a1U, 0xb2b295938e99a4baU, 0xa4a2a8a9aba8aba5U,
  0xaba2a4a3a2a2a0a4U, 0x99abaab3b1a3a8a5U, 0xa7a0a7a2adb8a495U, 0xaca79e9aa0999ea0U,
  0xb4a8b4adb1afa0a2U, 0xaab8aa9494c2b7b0U, 0x9c99979a9b9395a4U, 0x9da7a1a4a39d9593U,
  0x8892ac90a7afafa1U, 0x958b90a1b9b2a585U, 0xa89d9a9a94939d9aU, 0x97999e9493a7a2abU,
  0xb3a88f979a8dac93U, 0x9d9c9e999790999dU, 0x92a4a9aaa9a59d97U, 0x96ab9a8280828d94U,
  0x97898c9bbbac9594U, 0xa09c999c9da2a39dU, 0x7776869399a8a3a4U, 0xccc5ac969caf8181U,
  0x9099939b95929490U, 0x999ba19696948d90U, 0x94a58c7b7d818686U, 0x9799a195acbda497U,
  0x8d8789828d929096U, 0x808c958c928b8c89U, 0xbab1939493998e7bU, 0x8c8d8d929c9ea7a2U,
  0x8e85767a81878887U, 0x93a2897881889795U, 0x84878e99b1a19494U, 0x7f8c89807e787e86U,
  0x7b85908d8c8f8181U, 0x979d93949395a182U, 0x6a5a575f5d646885U, 0x72777f787e777671U,
  0x9495938789817a74U, 0x7682858993949395U, 0x64575b6b76777f7aU, 0x887f76656c5f6b5fU,
  0x9594959494949485U, 0x7f7f868786869393U, 0x88888c84817b7e7bU, 0x949494949496958eU,
  0x9595949395959393U, 0x9092a2a393939493U, 0x9394959493939393U, 0x9493949593949493U,
  0xb0aaaaa4aaa89c96U, 0xbeb09d879aa3bab3U, 0x94949394a2a7b3c1U, 0xabaaa49d9d999395U,
  0xafb09ea29e9095b1U, 0xb7d5cec2b29da9a4U, 0xa79794949494aab0U, 0x888287999ea29ea3U,
  0xa48f928b92a29486U, 0x948b8c9a9a9ba9aaU, 0x7b8d95889b999394U, 0x85868b887a7e7f89U,
  0x848593a2a89a9d93U, 0x8fa994938d7d7a82U, 0x7d848f93898b9285U, 0x8e9389818c817f80U,
  0x8f7e798593888181U, 0x928c897f89948494U, 0x99968e8c8888949eU, 0x7e907d72778b9797U,
  0x9ca18196827f6b77U, 0x8b8490908f968995U, 0x71819a9daba9968bU, 0x747f746b79928172U,
  0x8c9396a4b1ac85a8U, 0xaaac958580828e97U, 0x70807a6d6c798f99U, 0x95a1908b7b8e8072U,
  0x8685889394879295U, 0x7b858594b0b49e88U, 0x9b866f707873696aU, 0x8b7e81938190938bU,
  0x9eb1aa8f85818190U, 0x74747079868b9095U, 0x7e87948c8f7d7b76U, 0x978e849696867a8cU,
  0x9da0a4a3a3a4a8a7U, 0x877166646d798695U, 0x968974807b899793U, 0xa79ba5aaab9e929bU,
  0x727489aab6b1acaaU, 0x7d84929a7a6f6663U, 0xa9ad9b9b9e95867aU, 0xc1b0aca8a49d9ca2U,
  0x7b56564f566690b6U, 0x9c908f8189828e90U, 0x9d95969dabb3aa9bU, 0x52688bb4c0b4aaa5U,
  0x818e979080656553U, 0xb6bead9e8c7b7b87U, 0xb3b2b0a4948c8c9cU, 0x8e786f5a5d6c90aaU,
  0x7f6c798b79809599U, 0x9d95858fb6baaba3U, 0x575e819da3a8a9a9U, 0x768599958d6a6657U,
  0x9eb7a58e74656d80U, 0x999d97a3aaa99385U, 0x887766575a577b8eU, 0x6b686d8885859785U,
  0xa1ab9990999e947aU, 0x6257787f8c908c95U, 0x94898d95979d7156U, 0x9987787073777a89U,
  0x8d8b828f95a79d9cU, 0x9b90815f5d5d747dU, 0x777f77828892a194U, 0x92a9a2a390776a6bU,
  0x6f6c72778685848eU, 0x738d969b95958b76U, 0x8e796c73686b7a64U, 0x7e898489909c9c9cU,
  0x94978b857f7b7f7bU, 0x6a6a6f6d8692999bU, 0x8c8d8f8e898c7474U, 0x867e8b8b858e8f8eU,
  0x888c959393aba994U, 0x9c978779786d7177U, 0x96948f8081848b9bU, 0x95a3a89286869a94U,
  0x8b8b8d8e85879495U, 0x7e7d818c9ca09088U, 0x958c9ea3959e8f7fU, 0x8b8c959495879382U,
  0x9e9da2a99e99a499U, 0x8da19489848f8f90U, 0x9484938e94929a99U, 0xa9b1b3b49e949494U,
  0x94a1939d9ea99ea0U, 0xa797a4ab9e979b95U, 0x94939495959394a3U, 0xa0a18b92958c8f90U,
  0xa89d94a0a5a5869cU, 0x949493939394949cU, 0x9493939595959394U, 0x9495939395959494U,
  0x9394949394939395U, 0x9594949493939494U, 0x86828890979e9494U, 0x90959695827a8990U,
  0x9394959597978686U, 0x949b939294939494U, 0x7379788b7e8b9d9eU, 0xa58f7d7976877f70U,
  0x9a9993939494a0a8U, 0x8d8e8f8c84938c8fU, 0x7f796f73767f8c8eU, 0x9493a8b0b7a59786U,
  0x95959595999a9594U, 0x8889909690949496U, 0xa5ac9b9790979695U, 0x8f97939387a3b4acU,
  0x9a99a0a4a190939aU, 0x9d9b999b94999a9cU, 0x8492b8a8a0a2a09bU, 0xa4a2a1a5a08d9493U,
  0x87878e96949b9da0U, 0xa799a4969a8e9286U, 0xa89ea493949db1a7U, 0x8c9397a3a7a9afafU,
  0x9d9789817e7d8c90U, 0x949aa0a0a9aaa59cU, 0xb1a9adc0a497ad8eU, 0x88979ea09e9ca0abU,
  0xb3aa9aa09e94908cU, 0xa9a8a59da5b989a3U, 0xabaaa5aaaaaab1baU, 0x97969a979aacb0b1U,
  0xa0bfafa1b6a29b94U, 0xabadb0afa0a9af9dU, 0x939eb4b4bbb4afacU, 0xa49c9a9999999290U,
  0xa7a7b7a199a4a4a0U, 0xa9a7b2abb8aaa9b3U, 0x99928788767e8897U, 0x8592949c9b8f8e92U,
  0xb19ca5aa9babb097U, 0x7b71616d7a8ca5adU, 0x82848481888c8987U, 0x92b6b68c90929d95U,
  0x5a71878f938f8e8fU, 0x788b898185897352U, 0x9da8a5947a807d7aU, 0x6d787b8289b49b94U,
  0x809290654e4b4f5fU, 0x827d80787f858780U, 0x87a18b9d9cac9e96U, 0x7d4e37303e535d72U,
  0x868e86848b9bb19cU, 0xa1b0a0a18c858180U, 0x212b3b568287889eU, 0x95a1b0baa7865d2bU,
  0x948ea28e93939292U, 0x76868b93a2a4a996U, 0xb6a2895c4e41344dU, 0x9a9795999ca8acb6U,
  0xa7a2bb9c9594a59eU, 0x84726266708e9a94U, 0xa2a7b1acabb1a287U, 0x9797948e8f97979aU,
  0x818f9e8d9596aa9cU, 0xafb2b4a29d938289U, 0x8d92969ea7acb1abU, 0x9495a18e94909087U,
  0xacab9e969ca79d93U, 0xa4a2a7a7a5ababb1U, 0x999692888e958d95U, 0xa1a7a18e8c959999U,
  0x9da0a2a0a5a89a96U, 0xa09c9a99a0a1a4a5U, 0x959d9493a1a09b92U, 0xa2a59e979ea2908eU,
  0x9ba1a1a0a7a1a49cU, 0x9ba7a09da2a49b9bU, 0x8ea19595937f8e94U, 0xa8a5a79693938d9aU,
  0xaaaca4a9a7a2a8a7U, 0x95798e94a3ada1a3U, 0x747e7b89859e9493U, 0xafadaaa19b8f8d7fU,
  0x99a5a096afb6b0adU, 0xa08d9494959aabb8U, 0x978c878c868c7e8bU, 0x9aa5a7aba99c9494U,
  0x959a9585799a938cU, 0xa3827f8193939595U, 0x938d928f9a9297adU, 0x8f8e8792b7ac9492U,
  0x959495939394958bU, 0x9dbab6beb9b2a9a8U, 0xa8a2bfa997b0b79bU, 0x9494949594868187U,
  0x9492949394959594U, 0x9494949295929393U, 0x9392939495949493U, 0x9292929393949594U,
  0x9c93929296939692U, 0x9293959393939b9dU, 0x9595929393929390U, 0x8c888da4a4939693U,
  0x8177857779747478U, 0x8f8d7f6c6d66818bU, 0xa495939293959293U, 0x6d6f76847b7b8087U,
  0x80788d8e7d7f8480U, 0x949e957a6b626d8eU, 0x8474777999959292U, 0x9d8d807678637281U,
  0x7978747e8ba0a49bU, 0x7d8b929494af927bU, 0x767270807b6d6a71U, 0x84867f79788c8b7bU,
  0xa7cca894959a9b8bU, 0x908d9a9e95b19593U, 0x7e928f8e8681728dU, 0xa7b8b499948f857dU,
  0xaaa2a994b1a7a4a2U, 0x97a09499a1a3938fU, 0xaaa49393848d8d9aU, 0xac9da8a2a4aca39eU,
  0xa19e9587aaa3baa3U, 0x9d9b97a5a0a5a8b1U, 0xb4a2a5aca8b1a3a1U, 0xa894b49ea8a5bab2U,
  0xb7b2b0a8b3a99ba1U, 0xacb4b2aaa3a9acb0U, 0xb19bd3c8b2a7aaaaU, 0xa9a4aabab3a5b19dU,
  0xa0abb6b9c0b8b3a9U, 0xabb1aaaaabb1aca5U, 0xb8b2a9a0a1cfc6c5U, 0xc1b0a592999c93aaU,
  0x9ea296847f88a5b2U, 0x8bbfa9afa29d9797U, 0x95968b94acb1b79cU, 0x5d5d7ea3b9bbaa9dU,
  0x9c9987857d85887aU, 0x97b3bf958bb19ab0U, 0xadbba89e9e968c7fU, 0x6671777148445781U,
  0x8ca1a0bf9c958d7eU, 0xa49c9a799dc4af95U, 0x70584b5e87b4ada4U, 0xb99688736a6d7472U,
  0x99a8949c9290a2d2U, 0x779ea7a1ada09780U, 0x7a7a73767f6f5058U, 0x8ea0a7c8b293927aU,
  0x9e92908d9799929dU, 0x826f493d5e88999dU, 0xa392968182818181U, 0x958c99958fb29babU,
  0x58798689868e9b99U, 0x849793888c815c47U, 0x8fa0aab1a1939686U, 0x8c94a59a7ba39aa1U,
  0x88846f585c6d7f85U, 0x95969a8f8b9c9592U, 0x79aba896898d93a0U, 0x6b738b979ea2a5aaU,
  0x8d939a8e95908277U, 0x97897d95828f888bU, 0x9da0aaa071869992U, 0x949290979499a1a5U,
  0x7e8d8885908c928cU, 0x858592949d967b80U, 0xada9a49c9e99999aU, 0x949590948f8d8f9eU,
  0x99a9859385909394U, 0x979393788d749394U, 0xa3a2a29da1a3aaa2U, 0x81908b8295a59d9bU,
  0x958593969aa17e84U, 0xa5b7af9d9a9d9985U, 0x959da19ea7a5a0a8U, 0x9495819784828880U,
  0x8e8799998f8b9293U, 0x999b9ea79ea5a099U, 0x8c9aa08da4acac93U, 0xa28c949295967fa7U,
  0x9d88969c8f84828cU, 0xb1a5a7a79b949aa2U, 0x949293b1a2aca78dU, 0x8879767e95939594U,
  0xa4868b8d90888096U, 0x8db29d89ad9e96a2U, 0x9694949493959c84U, 0x96aaabb8b0a9a09bU,
  0x97a5b894879aac92U, 0x94969494aaa2a295U, 0x9097929293949495U, 0x9396979595909493U,
  0x9293949594929795U, 0x9793969495929494U, 0x9393939695969596U, 0x8f93909594949796U,
  0x9497949295929394U, 0x8d978c8e99939492U, 0x807b77818da2a9a8U, 0x96888b74776b7371U,
  0x9690949394949ca0U, 0xb1bdb1b1a29ea599U, 0x6b63655869768995U, 0x90959daa8e89827dU,
  0xbaa3898d9e909a93U, 0x9b9e90abbdb6b1a2U, 0x96937f78778e8b8fU, 0xa1809392a1adaaa4U,
  0xbda79294a8957788U, 0xafb8bdafa8adb3b2U, 0x97bac08d848e94a9U, 0x868d788297ab9496U,
  0xefe1cdbab3b2a89aU, 0x828e998fa1b9c7daU, 0x7da48b94a0b6a188U, 0xb1b4a59d868d7986U,
  0x859395b2d6e2d9bfU, 0xac938c877f8c8c7eU, 0x8e96857d7e7f8092U, 0x95a8b0b9a8ada49eU,
  0x90898f7d86897e96U, 0x8b8c8792a79c928cU, 0x9eaaa7a093a0877bU, 0x939d95806d6c7b8dU,
  0x8eb3bdb7a790948dU, 0x95aca17b8780708cU, 0x6f66647a8ca099a0U, 0xac979b9b9db0a79aU,
  0x898f6d8586a29db4U, 0x8e92929e97aaaa95U, 0x9da3a89b89858e87U, 0x88a29bb1a1889290U,
  0x909da1a29d937881U, 0x8894a194928f958eU, 0x8d7d908d9c9ba08dU, 0xad94789688909aa4U,
  0x8993959090898fa2U, 0x8c8c90898c90968dU, 0x9587829284807d8cU, 0x8b86788b9b7e8299U,
  0x8b859589908d878cU, 0x7b7886867481868cU, 0x736896909c85767fU, 0x8c8d898b93827d89U,
  0x7376818587888f92U, 0x9689769788818185U, 0x857b858d867f9987U, 0x7d8294a8a3998c85U,
  0xa090848d7a73797dU, 0xaa879392977f808fU, 0xaca29486777f8c99U, 0x8e747a7b747d94a8U,
  0x95748f8d978e8b96U, 0x8596889396828e94U, 0x715e7797a5aa8f8bU, 0xa5ab9da7b28c7f71U,
  0x9b9d938d8c829cabU, 0x8f9c889a9c868595U, 0xb9aa9a81705a6286U, 0x8e8994a8b7b8b0b2U,
  0x9d8d99a59aa19797U, 0x8f747072729093a2U, 0xadb9acafb1a79e9bU, 0x828fa0958e859996U,
  0x828797949b93818fU, 0x9b97a0aba4948f88U, 0x94a09396b4b49ea8U, 0x99927a7f8c8f9697U,
  0xbac0bbb4a8969d95U, 0xb0b196998b97a3b1U, 0xb0a0949297898ea5U, 0xcec1b7b9a59a9296U,
  0x959ba9bbc1d3d4cdU, 0x9379a1b7c4b89b97U, 0xa4998689a8a09296U, 0xbfb9c2beb8b8b2b4U,
  0xbbafa7b1aab1b0b9U, 0x82a0959595858bbbU, 0xa8ac999b8c96867bU, 0xcfc1c8bbbaa9ada3U,
  0x969c9bb4a8a4bbd2U, 0x9490999d92959395U, 0x99a8afa2a3a7a499U, 0xb097abcfadacac9eU,
  0x92969694969492a7U, 0x8f908c9093939090U, 0x7e765a62725e5d81U, 0x9293949485818996U,
  0x9595959594939494U, 0x9594949495959494U, 0x9494939394959495U, 0x9493949593959395U,
  0x9392999d96969494U, 0x94949394948f8e8eU, 0x9395959496969393U, 0x95908b8b90949593U,
  0x7e827f8896a7a8a8U, 0xa98e8c87887d7b6fU, 0x929593959594a7a8U, 0x9eabb6b390878c93U,
  0x79707879878f94a1U, 0x959cadaf8e84898fU, 0xa496878fa5a39a95U, 0x9aa0a2b1c2b0b7afU,
  0x8485817f7e7d8082U, 0xb092959493b39b9bU, 0xb7aba7a19b9e99b8U, 0x92959d9699a4b1b4U,
  0xa7bfd7a2868b9495U, 0xa5ad9aadbfb0a094U, 0xbdbebbbbb8b6b6b1U, 0x888e9c9ba2b7bab4U,
  0xb8abb093a4c1c9a0U, 0xbbb9b6bea2a893a0U, 0xa0b4b9c2c7c5c6c1U, 0xafa59c8b7d8f9c9dU,
  0xa8afa193ac9eab95U, 0xc4cdbfbfb9bbb3b8U, 0x8b8f9097a1acafc1U, 0xb4a4a19eafa39688U,
  0xaab1adadaaafaaafU, 0x9b9ea0a5adb6b1adU, 0xa7a99e97928f8d95U, 0x9aa9b0a2ad99a19eU,
  0x8b99978d93969699U, 0x9a93938f8f978894U, 0xa396a49d9bad9694U, 0x8980818286959796U,
  0x8f948c847f879486U, 0x82b2999992958e94U, 0x7884818b8f93a19bU, 0x85868073777d817aU,
  0x8285889396929085U, 0x90969b8287938d87U, 0x7180827b7f797777U, 0x9396928782868779U,
  0x958985847a7d8c94U, 0x857f717a8cb69a97U, 0x86888b8784857f85U, 0x887794938e948e82U,
  0x7f88929ba1a38893U, 0x928c84888c857d7fU, 0x868e8c8181828d8fU, 0xa790869b897f8e8fU,
  0x86868081849a9d9bU, 0x7a78889995938886U, 0x9e93958e89828884U, 0x8c8f8e95a9948c9dU,
  0x948c88867a7e848dU, 0x8d8c93877f788095U, 0xb19d9a9796979492U, 0x787f878e8795a09aU,
  0x867a7a808c93807fU, 0x94a79b999a959b90U, 0x8e9a9d939aa49093U, 0x7e877f8786929496U,
  0x9c9da093938b8687U, 0x9ba59aa3a2a59d9dU, 0xa4aac0c0c1a2a895U, 0x99969d938885829cU,
  0xaba29e9d9c959696U, 0xa7c2a48c9297a0aaU, 0x9e96999eb6bdafb2U, 0x998f929c939ba2a9U,
  0x99a59ea3aba79a9dU, 0xc9d7ac9aafbd938cU, 0x9ca2a4b1b3b3b8b9U, 0xa9aa90968b92929bU,
  0xb3b39493998b95a4U, 0xc6c6bdb8c6c8b9b6U, 0x8c8b979ca3a8adb3U, 0x957f9aa7a8af9793U,
  0xa49baac2b29e9594U, 0xaaacb3b6a8a4a2a4U, 0x9b999c9aa19ca0a0U, 0xa1949394949c88b4U,
  0xb1a7b3baa1948d92U, 0xbfb6b9b6b0a9b3baU, 0x94a49cb99e97a1a7U, 0xaa8581829d949493U,
  0xc5f0e0cbdbe1d4ceU, 0xb3b3baccd0d0dcdeU, 0x9495949593939593U, 0xb1aaaf9d9da3a29dU,
  0xb2acb7b6aaccc8b3U, 0x949395949e898999U, 0x9594949493949494U, 0x94949c9b94949594U,
  0x9595949494949495U, 0x9494949494949494U, 0xb8b3bbaba9a79a95U, 0xabcbcfb79285afc1U,
  0x95949494a3a4a2afU, 0xbeb0a99d909a9495U, 0xb0b6a5e0e8d9cdc9U, 0xa0999da39eb2b4afU,
  0x968794949594878bU, 0xb4b0adbac6b0a297U, 0xa2a4a7aaafb4b6b6U, 0x949487737e798699U,
  0xa9aca4a892879793U, 0x8c8e878f949b94a9U, 0x7673738285888d93U, 0x7e89949493958474U,
  0x7d8987898f888d9bU, 0x857a858176747d7fU, 0x949b94776c6b6c82U, 0x938c859ea4a9a294U,
  0xa4979094999ba08fU, 0x586f77748299a3a9U, 0xa9aab49489858161U, 0xa2a29e9a999b7f9aU,
  0x7b8b94aabeb3a5a4U, 0x877b6154536a7077U, 0x9b9d8d979793a285U, 0xaab8afa5b0aba2a4U,
  0x6689807e87818292U, 0x9e9e949594876a54U, 0xabb2b0b4adb1acafU, 0x89827a7688a1a7afU,
  0xa3968679888f8c92U, 0xb2bebdacb8949695U, 0x5d718d93979da8b0U, 0x9d95999e97948473U,
  0xb09c99939d958d90U, 0x787a8e969aa8afabU, 0xa9a8a2937763666fU, 0x997a9c9eafa4a2acU,
  0x7f8892a8a0949e93U, 0xa3956c5e616b6c76U, 0xa49e9ba1a3acb0abU, 0x99999282a196a59cU,
  0x78746f6d71797b88U, 0x9ea1a7b7b0a4937bU, 0xa89da9a59c969e9bU, 0x777b70729697998dU,
  0xafa3a3999290827bU, 0x9ca4a9a49c9d9aaaU, 0x8c959c8ea1adb097U, 0x9b938c88878e7373U,
  0xa39a9795a0a29e9cU, 0xab93b09e90a2aca8U, 0x9099888b93b9a495U, 0x909a9e9a9e95908dU,
  0x939d9b969e9c938dU, 0xa3aba294a39eb499U, 0xa1968e959394889aU, 0x9da19a8b9697a2a0U,
  0x999ebb908e90908eU, 0x93958fabb1ad99a0U, 0x96999ba3a99b878eU, 0x88928f869ca3a295U,
  0xa29a938f8e9bb789U, 0xa9979094979599abU, 0x949b96979a9990a4U, 0x8795968281928e86U,
  0xa19aa7a5ad949794U, 0x999c94928f938f94U, 0x848287848b8f8993U, 0x9ea49e9394949d9aU,
  0x8d938f95a09a9595U, 0x858e868f8e979795U, 0x9481909786827f84U, 0x9c9c999b90a89793U,
  0x847d7f8682909397U, 0x898e7d818184878cU, 0x96b794939481878bU, 0x898f8da0a4aaa4a0U,
  0x888b88847f777279U, 0x94858b9b96a7958cU, 0xb2afb6baa89d9494U, 0x978f8b868b9595a8U,
  0xa5a3a9a09493a2a2U, 0x90a5949494949cacU, 0xa8a0aabfbbb2acaaU, 0xbdb7b0b2a8afb0bbU,
  0x9495a38f949bb8c0U, 0xb6908c8f9a949493U, 0xbfdecbbbb7c9cebdU, 0xa1b2beccccdcd3d6U,
  0x9594949494959690U, 0xb7af9ea2a9a39693U, 0xb3bbc0bdc7d0bfb0U, 0x9593959494a4acafU,
  0x9494949593949393U, 0x9594949594949394U, 0x9595939395959495U, 0x9393949493949393U,
  0x8285939395959494U, 0x71868287948b8c81U, 0x94959595958e8771U, 0x8482869493959594U,
  0x89828b887666717dU, 0x8488889ba89a948fU, 0xa390949495948679U, 0xa1a9a2ad9a99a4a4U,
  0xa5a89d9ba09a99a2U, 0x9594889b8f87a1adU, 0xa1909396a4959b94U, 0x9d9b949c9eaba9abU,
  0x8b8ea29496a19a97U, 0xa293959494afa0aaU, 0x96939d9ba8978d90U, 0x9d9ba7a595979696U,
  0x9aa8978d868790a1U, 0x979ba2a09290a195U, 0x9c8f8f958f909a99U, 0x9c8b8c9da0979a9dU,
  0x948c9a938eaaaca2U, 0x92999e9c9a979b9aU, 0x9c90949b9d909295U, 0x8fb6c1b1a0998995U,
  0x909290959a868594U, 0x8d87939a97959b97U, 0xa9a79d999794888eU, 0x9c898089a9d3e4c6U,
  0x9d94979c9389808eU, 0x8f8c8881858b949aU, 0x8ba9f2c8acb2a79eU, 0x8981859aa9866f88U,
  0x909ca5a89d9a9696U, 0xa9a5979a93909590U, 0x9e7a7f8986a5bdbeU, 0xa399908679808899U,
  0x8b9aa2a2a8b9b9b9U, 0x86a2b79d87727385U, 0x6a6d7f9495687e94U, 0xadc4c0b7a8978877U,
  0x4d48526b7e9ba7a8U, 0x9b6c749487948668U, 0x9c7d766861536f8eU, 0x8899a4acabb4c1b4U,
  0x908b7a5b54496377U, 0x525d7999a070959aU, 0xa0a8b1a5876a5e50U, 0x5d748e93969aa5a4U,
  0x92a59e938d868063U, 0x6c5d5b616b8794aaU, 0xa19d959592999b8dU, 0x9280795f79909daaU,
  0x859aaab19aa7a288U, 0x90847e7665626c7dU, 0x819aa1aca8a8968eU, 0xa5959c9489716256U,
  0x6f708597a5b3b6b9U, 0xaca5a2948c7b7173U, 0x86735d587a9cadacU, 0xb4bbb7aca995a193U,
  0x908181858f89a1acU, 0x728fa8adaba1a093U, 0xa7958494897b6c5bU, 0x9399a7afa9afaca3U,
  0xa8a29e93867f868fU, 0x887d895c6c7fa1a7U, 0x979c9a978e879295U, 0x88878d8c92999ca2U,
  0x617a97a9a3a59d93U, 0x7f888c99957f714fU, 0x938d8d8887928d8cU, 0x9a9b978f888b9292U,
  0x938281576368779bU, 0x817d788c88909a99U, 0x90949593998d7e7fU, 0x726d6a8092959d99U,
  0xa3aa94949389857dU, 0x9a90878c897b7d92U, 0x88929ba0a4a3a99eU, 0x93888d8d6d696a7fU,
  0xab9c93a1afa59593U, 0x9c979ca19d9da5a8U, 0x7d6f6276848495a3U, 0x9ca29494958b8888U,
  0x97a4a9acab9b8c8eU, 0x81747e8e9493a4abU, 0x939394857f8f888fU, 0x9382819c99939493U,
  0x8b7a888287858c8dU, 0x868b8c8979798090U, 0x9594949495949395U, 0x7170768285909392U,
  0x6c72697876736b7eU, 0x939594959585968bU, 0x9595959393949494U, 0x9799a4a395959494U,
  0x9595939594939494U, 0x9495949495939494U, 0x9cabb1aaa9a99c96U, 0xa8b9c4c0bf959e97U,
  0x95949394a9abaaadU, 0xbab6aaa19d959595U, 0xc8b7bbd0eae1ebd2U, 0xbbb9c9dcdef0b9beU,
  0xa7a194949494a9b0U, 0xa7b2bab3adada5acU, 0xa8ad9ea4a9a2adb1U, 0x95a09ba7b2b0ada2U,
  0xb0b2ac9697a09395U, 0xa7a8a7b1adb9b1b7U, 0xa092868fa0a8a8adU, 0xa2a99594a5a59d95U,
  0x97a197929a888296U, 0x939297a59ea19d9bU, 0xa2a29c9a8f8d8d95U, 0x90908d9ca4a7a293U,
  0x8988848c8d888b85U, 0x867a73777f797484U, 0x94a39d959d9a9e93U, 0x8e86828e8e88889bU,
  0x736d6d737f868089U, 0x9d94a48e74747070U, 0x8b8f8f978e979494U, 0x7e8e898892928988U,
  0x877a727b77707977U, 0x9a968493a197a38dU, 0x8d8f898e8e8b99a0U, 0x828485878e92888eU,
  0x88a0bfa2928e8286U, 0x909099a29c908d93U, 0x9396898c8d8d8894U, 0x9e8b8f908d8f9395U,
  0xa09993948ba9b0b2U, 0x828081888887939cU, 0x96948e8e8ea18c7bU, 0x94a5c4b8a28f9090U,
  0x7e7a8f968b868d94U, 0x94ada08b847f7d80U, 0x8c8f94958e92908cU, 0x8e8d8d9d8ea2b2a4U,
  0x8b827e857a7a8585U, 0x958e8d939db7bba1U, 0xa8aca2a799928e93U, 0x82847d77a193889eU,
  0xa5bdb6a0968d8981U, 0x95968d8d959a869aU, 0xada088a0a7b8a99bU, 0x8c8588858089888eU,
  0x9299939ca5bfbe9dU, 0xad99b89e878d958fU, 0x8b9995a3baa28d95U, 0xa1b6b3a0938b8c82U,
  0x9a93968c93999da1U, 0xb8a29795ababbda7U, 0x928e878f92998da3U, 0x969d9ea19da3a093U,
  0x99a1af96998f928eU, 0xa19792a3b895a194U, 0xa3a29c9c9399929aU, 0xa2958b9099a5adaaU,
  0xa79d8b99af9acfaaU, 0xaca7a79ea39a99a4U, 0xa0acb2b2b1aaa5a5U, 0xa4b9d4a7afa89a9aU,
  0xaa9e9aa3aca88b94U, 0xb4b6b0acb0abadaaU, 0xada5a9a5a7b7afb6U, 0xa9a594999dc1b2a4U,
  0xa7b1afa9a99a92a0U, 0xa9b2ada8adb3afa5U, 0x93a2b0a0aca19ba2U, 0x938e959ba2a8939bU,
  0x8e9295939aa7aa9bU, 0x978e8e9b93928c8bU, 0x9dab9595928ba196U, 0x868f978f8282908cU,
  0x746962666b737b81U, 0x9496968492968d89U, 0x777b7e737f8f9395U, 0x52575466656f7673U,
  0x868b8f745d585b5cU, 0x869a949494a4ab97U, 0x5b5e5e5869787881U, 0x77666a5e4d5a5e70U,
  0x95a0a19794998f81U, 0x868789898b949593U, 0x68787d727e798085U, 0x8581828d8c8b8b79U,
  0x949493949495938dU, 0x8481958c8d8e9494U, 0x8d858c9493858f94U, 0x949494939389898dU,
  0x9494949494939394U, 0x94948d8d94939594U, 0x9593949493949393U, 0x9593949494939495U,
  0x8584798081828f95U, 0x8b828282848b8887U, 0x95939493867f827bU, 0x767b899094929494U,
  0x655f5c615b716a70U, 0x7b7e6d8781938666U, 0x8e90949594938182U, 0x48566f64657f888fU,
  0x9795867b7a5b4e4cU, 0x9387858b94999b92U, 0x737e8795949c9595U, 0x7e79767477697373U,
  0xa09c998d96978f82U, 0x8b879493a2a39ea5U, 0x8f808c8682888b8cU, 0x7f888d807b858996U,
  0xa1a8a59489888681U, 0x8b939999959d9c93U, 0x9696969799979d97U, 0x9a8d88909d9e9d96U,
  0x979eac9495aba89bU, 0x9e9ba0a595998f99U, 0xa0a4a7a4a5999b9bU, 0x9bb1ab9e9b909297U,
  0xa9a2969e9e9b9096U, 0xa29b959c9b9ba5acU, 0xa7a29d9a97a39da2U, 0x9ca19c90a2b9cebfU,
  0x9e94a3a8aaa99da1U, 0x90949d9c99928f96U, 0xa5bed6bbb7b2ad9eU, 0xa7a3a0a4a1959c92U,
  0x8b797f8e949da3a5U, 0xafb1aaa996909096U, 0xa19d8895a4b8c7bdU, 0x9da8b2abaaa8ada8U,
  0x9590979b8f7e798cU, 0xa0bfbbb4a5ad9e9eU, 0xafa8b0a79e999796U, 0x968b8f96a4adb2b1U,
  0x9b9c9a9d9994959aU, 0x979396889da2a194U, 0xb7b1b2afa9a1b1aaU, 0x9ca1999a9c9ba5afU,
  0x90968f8484929ba5U, 0x9e97a5acac8e9d8dU, 0xa3a7abbab1adadabU, 0x868f93979a9cada7U,
  0xa39e9d8e90858287U, 0xb4aca4a097929490U, 0x9096a9aaabaaa9b9U, 0x8b9774849097928eU,
  0x938b857688959d93U, 0xaca1afbda8a09e9aU, 0x888987828199aaa9U, 0x86939c948c84778fU,
  0x92878c88897e7a72U, 0x7a8e9ca2a49da8a1U, 0x8b86748f87878d81U, 0x777e7d7382949a8fU,
  0x8f898d7e79727171U, 0x80878e897b848d92U, 0x8e968692899e6f80U, 0x5f646c6d7982898cU,
  0x908e9387847f7769U, 0x8b82817e86889095U, 0x878e998c909a9494U, 0x8c847f746d6d7d85U,
  0x9397969a948e948cU, 0x8b9c9c9290868978U, 0x8178858d908f9793U, 0x89828c9393858282U,
  0x9381807b8e939593U, 0x938c929c95999992U, 0x8e908b8b8b848490U, 0x92948b8d8f85888eU,
  0xa7a2939495858480U, 0x99948d969c9e9ba8U, 0x8d948d909297958eU, 0x958e80809e968b88U,
  0xa4ada7b9afa89395U, 0x9ea3aba4b3a7979dU, 0xa29c969ba39e9ba1U, 0xa1a094949487777aU,
  0xe7e5c9bdbebee2c5U, 0xbbbdbac5c5d3deddU, 0x948b8ca1b8ada9aaU, 0xbbc2b8af97939495U,
  0xc0dbe1e1d9d2c8c6U, 0xb0a9b4bbb3c8cbd2U, 0x949494949495979aU, 0x9d908f8989899292U,
  0x9d9a9aa8b2b297a1U, 0x94939494a0a29da5U, 0x9495939394949394U, 0x95948c8d93949395U,
  0x9493959394949595U, 0x9495949594959394U, 0x8282818586889394U, 0x90907f8182908d8cU,
  0x929393938e8d9392U, 0x7b84929493939393U, 0x69635a6979716a72U, 0x8f8d92a39d94876cU,
  0xa2a5939393939294U, 0x716476797b8d969cU, 0x857f646871747984U, 0x95898989898d867dU,
  0x959e99afb0a59695U, 0x9394958b86787987U, 0x93a19c95aca08e90U, 0xb9a9939385908b89U,
  0x92898c889ca3a1a4U, 0x8c878f8893928e95U, 0x84889a939a9a8e8dU, 0x898ca3959ba19495U,
  0x8b9d9d94a19c9497U, 0x8f97939b8b948e8fU, 0x99a4939496a19399U, 0x9d9b9b908d888492U,
  0x959599958c9aa09bU, 0x9eaf999693968e97U, 0x93958d9b9da58995U, 0x9a9995928e929a95U,
  0x8b938b939da0a397U, 0x939b958d9c96a49eU, 0x8f9096999c9b879aU, 0x99a8a5a7aa9a9790U,
  0xa0939d968b8b8f99U, 0x8682829a9c969e8bU, 0xa8978990908d9093U, 0x8d8b909b999aa2a2U,
  0x9d8e958e908fb49aU, 0x898c94968b85888cU, 0x8e949a9ba8a18b86U, 0x8d8da8ab96969ba0U,
  0x9b93768177848c93U, 0xa4aa9d8d8b979794U, 0x9c94959989929499U, 0x747894a09d8490a5U,
  0x939eababab998587U, 0x8e929c9aa5b6a596U, 0x9e7d797f858b9ba1U, 0xb1979ca78b7d9e88U,
  0xacb4a9a29aaac4c4U, 0x70818f9a9999a1a1U, 0x9ca7a0889576726aU, 0xb7c0ccc1a88c8ea5U,
  0x8f9ea0a3a2ada7acU, 0x9986665d7f8f9792U, 0x90747b8789a5a88dU, 0x9ea9b0b3b3b6baacU,
